#include "model_data.h"

// ResNet-1D v25 Model for Fall Detection (INT8 Quantized)
// Architecture: Conv1D(16) -> 4x(ResNet Block + SE Block), GAP+GMP, 5 Classes
// Input: (200, 6) INT8
// Output: (5) INT8 -> Walk, Run, Idle, Trans, Fall
const unsigned char g_model_data[] = {
  0x20, 0x00, 0x00, 0x00, 0x54, 0x46, 0x4c, 0x33, 0x00, 0x00, 0x00, 0x00, 
  0x14, 0x00, 0x20, 0x00, 0x1c, 0x00, 0x18, 0x00, 0x14, 0x00, 0x10, 0x00, 
  0x0c, 0x00, 0x00, 0x00, 0x08, 0x00, 0x04, 0x00, 0x14, 0x00, 0x00, 0x00, 
  0x1c, 0x00, 0x00, 0x00, 0x88, 0x00, 0x00, 0x00, 0xe0, 0x00, 0x00, 0x00, 
  0x6c, 0x56, 0x00, 0x00, 0x7c, 0x56, 0x00, 0x00, 0x70, 0x3c, 0x01, 0x00, 
  0x03, 0x00, 0x00, 0x00, 0x01, 0x00, 0x00, 0x00, 0x04, 0x00, 0x00, 0x00, 
  0x3e, 0x94, 0xff, 0xff, 0x0c, 0x00, 0x00, 0x00, 0x1c, 0x00, 0x00, 0x00, 
  0x3c, 0x00, 0x00, 0x00, 0x0f, 0x00, 0x00, 0x00, 0x73, 0x65, 0x72, 0x76, 
  0x69, 0x6e, 0x67, 0x5f, 0x64, 0x65, 0x66, 0x61, 0x75, 0x6c, 0x74, 0x00, 
  0x01, 0x00, 0x00, 0x00, 0x04, 0x00, 0x00, 0x00, 0x94, 0xff, 0xff, 0xff, 
  0xad, 0x00, 0x00, 0x00, 0x04, 0x00, 0x00, 0x00, 0x08, 0x00, 0x00, 0x00, 
  0x6f, 0x75, 0x74, 0x70, 0x75, 0x74, 0x5f, 0x30, 0x00, 0x00, 0x00, 0x00, 
  0x01, 0x00, 0x00, 0x00, 0x04, 0x00, 0x00, 0x00, 0x42, 0x97, 0xff, 0xff, 
  0x04, 0x00, 0x00, 0x00, 0x0b, 0x00, 0x00, 0x00, 0x69, 0x6e, 0x70, 0x75, 
  0x74, 0x5f, 0x6c, 0x61, 0x79, 0x65, 0x72, 0x00, 0x02, 0x00, 0x00, 0x00, 
  0x34, 0x00, 0x00, 0x00, 0x04, 0x00, 0x00, 0x00, 0xdc, 0xff, 0xff, 0xff, 
  0xb0, 0x00, 0x00, 0x00, 0x04, 0x00, 0x00, 0x00, 0x13, 0x00, 0x00, 0x00, 
  0x43, 0x4f, 0x4e, 0x56, 0x45, 0x52, 0x53, 0x49, 0x4f, 0x4e, 0x5f, 0x4d, 
  0x45, 0x54, 0x41, 0x44, 0x41, 0x54, 0x41, 0x00, 0x08, 0x00, 0x0c, 0x00, 
  0x08, 0x00, 0x04, 0x00, 0x08, 0x00, 0x00, 0x00, 0xaf, 0x00, 0x00, 0x00, 
  0x04, 0x00, 0x00, 0x00, 0x13, 0x00, 0x00, 0x00, 0x6d, 0x69, 0x6e, 0x5f, 
  0x72, 0x75, 0x6e, 0x74, 0x69, 0x6d, 0x65, 0x5f, 0x76, 0x65, 0x72, 0x73, 
  0x69, 0x6f, 0x6e, 0x00, 0xb1, 0x00, 0x00, 0x00, 0x88, 0x55, 0x00, 0x00, 
  0x80, 0x55, 0x00, 0x00, 0x6c, 0x55, 0x00, 0x00, 0x50, 0x55, 0x00, 0x00, 
  0x3c, 0x55, 0x00, 0x00, 0x28, 0x55, 0x00, 0x00, 0x20, 0x55, 0x00, 0x00, 
  0x0c, 0x55, 0x00, 0x00, 0xf0, 0x54, 0x00, 0x00, 0xd4, 0x54, 0x00, 0x00, 
  0xb8, 0x54, 0x00, 0x00, 0xa4, 0x54, 0x00, 0x00, 0x88, 0x54, 0x00, 0x00, 
  0x6c, 0x54, 0x00, 0x00, 0x50, 0x54, 0x00, 0x00, 0x3c, 0x54, 0x00, 0x00, 
  0x20, 0x54, 0x00, 0x00, 0xfc, 0x53, 0x00, 0x00, 0x6c, 0x51, 0x00, 0x00, 
  0x5c, 0x4d, 0x00, 0x00, 0x4c, 0x49, 0x00, 0x00, 0x3c, 0x48, 0x00, 0x00, 
  0x2c, 0x38, 0x00, 0x00, 0x1c, 0x37, 0x00, 0x00, 0x14, 0x37, 0x00, 0x00, 
  0x44, 0x36, 0x00, 0x00, 0x34, 0x35, 0x00, 0x00, 0x24, 0x2d, 0x00, 0x00, 
  0xb4, 0x2c, 0x00, 0x00, 0xa4, 0x2b, 0x00, 0x00, 0x94, 0x23, 0x00, 0x00, 
  0x84, 0x22, 0x00, 0x00, 0x74, 0x21, 0x00, 0x00, 0xe4, 0x20, 0x00, 0x00, 
  0xd4, 0x1c, 0x00, 0x00, 0x64, 0x1c, 0x00, 0x00, 0xd4, 0x1b, 0x00, 0x00, 
  0xc4, 0x17, 0x00, 0x00, 0x54, 0x17, 0x00, 0x00, 0x44, 0x16, 0x00, 0x00, 
  0x14, 0x16, 0x00, 0x00, 0x0c, 0x16, 0x00, 0x00, 0xfc, 0x14, 0x00, 0x00, 
  0x6c, 0x14, 0x00, 0x00, 0x5c, 0x10, 0x00, 0x00, 0xcc, 0x0f, 0x00, 0x00, 
  0xc4, 0x0f, 0x00, 0x00, 0xbc, 0x0f, 0x00, 0x00, 0xb4, 0x0f, 0x00, 0x00, 
  0xac, 0x0f, 0x00, 0x00, 0xa4, 0x0f, 0x00, 0x00, 0x34, 0x0f, 0x00, 0x00, 
  0xa4, 0x0e, 0x00, 0x00, 0x94, 0x0c, 0x00, 0x00, 0x54, 0x0c, 0x00, 0x00, 
  0xc4, 0x0b, 0x00, 0x00, 0xb4, 0x09, 0x00, 0x00, 0x64, 0x09, 0x00, 0x00, 
  0x44, 0x09, 0x00, 0x00, 0xf4, 0x08, 0x00, 0x00, 0xa4, 0x08, 0x00, 0x00, 
  0x94, 0x07, 0x00, 0x00, 0x54, 0x07, 0x00, 0x00, 0x04, 0x07, 0x00, 0x00, 
  0xf4, 0x05, 0x00, 0x00, 0xa4, 0x05, 0x00, 0x00, 0x9c, 0x05, 0x00, 0x00, 
  0x94, 0x05, 0x00, 0x00, 0x8c, 0x05, 0x00, 0x00, 0x84, 0x05, 0x00, 0x00, 
  0x44, 0x05, 0x00, 0x00, 0xf4, 0x04, 0x00, 0x00, 0xc4, 0x03, 0x00, 0x00, 
  0xbc, 0x03, 0x00, 0x00, 0xb4, 0x03, 0x00, 0x00, 0xac, 0x03, 0x00, 0x00, 
  0xa4, 0x03, 0x00, 0x00, 0x9c, 0x03, 0x00, 0x00, 0x94, 0x03, 0x00, 0x00, 
  0x8c, 0x03, 0x00, 0x00, 0x84, 0x03, 0x00, 0x00, 0x7c, 0x03, 0x00, 0x00, 
  0x74, 0x03, 0x00, 0x00, 0x6c, 0x03, 0x00, 0x00, 0x64, 0x03, 0x00, 0x00, 
  0x5c, 0x03, 0x00, 0x00, 0x54, 0x03, 0x00, 0x00, 0x4c, 0x03, 0x00, 0x00, 
  0x44, 0x03, 0x00, 0x00, 0x3c, 0x03, 0x00, 0x00, 0x34, 0x03, 0x00, 0x00, 
  0x2c, 0x03, 0x00, 0x00, 0x24, 0x03, 0x00, 0x00, 0x1c, 0x03, 0x00, 0x00, 
  0x14, 0x03, 0x00, 0x00, 0x0c, 0x03, 0x00, 0x00, 0x04, 0x03, 0x00, 0x00, 
  0xfc, 0x02, 0x00, 0x00, 0xf4, 0x02, 0x00, 0x00, 0xec, 0x02, 0x00, 0x00, 
  0xe4, 0x02, 0x00, 0x00, 0xdc, 0x02, 0x00, 0x00, 0xd4, 0x02, 0x00, 0x00, 
  0xcc, 0x02, 0x00, 0x00, 0xc4, 0x02, 0x00, 0x00, 0xbc, 0x02, 0x00, 0x00, 
  0xb4, 0x02, 0x00, 0x00, 0xac, 0x02, 0x00, 0x00, 0xa4, 0x02, 0x00, 0x00, 
  0x9c, 0x02, 0x00, 0x00, 0x94, 0x02, 0x00, 0x00, 0x8c, 0x02, 0x00, 0x00, 
  0x84, 0x02, 0x00, 0x00, 0x7c, 0x02, 0x00, 0x00, 0x74, 0x02, 0x00, 0x00, 
  0x6c, 0x02, 0x00, 0x00, 0x64, 0x02, 0x00, 0x00, 0x5c, 0x02, 0x00, 0x00, 
  0x54, 0x02, 0x00, 0x00, 0x4c, 0x02, 0x00, 0x00, 0x44, 0x02, 0x00, 0x00, 
  0x3c, 0x02, 0x00, 0x00, 0x34, 0x02, 0x00, 0x00, 0x2c, 0x02, 0x00, 0x00, 
  0x24, 0x02, 0x00, 0x00, 0x1c, 0x02, 0x00, 0x00, 0x14, 0x02, 0x00, 0x00, 
  0x0c, 0x02, 0x00, 0x00, 0x04, 0x02, 0x00, 0x00, 0xfc, 0x01, 0x00, 0x00, 
  0xf4, 0x01, 0x00, 0x00, 0xec, 0x01, 0x00, 0x00, 0xe4, 0x01, 0x00, 0x00, 
  0xdc, 0x01, 0x00, 0x00, 0xd4, 0x01, 0x00, 0x00, 0xcc, 0x01, 0x00, 0x00, 
  0xc4, 0x01, 0x00, 0x00, 0xbc, 0x01, 0x00, 0x00, 0xb4, 0x01, 0x00, 0x00, 
  0xac, 0x01, 0x00, 0x00, 0xa4, 0x01, 0x00, 0x00, 0x9c, 0x01, 0x00, 0x00, 
  0x94, 0x01, 0x00, 0x00, 0x8c, 0x01, 0x00, 0x00, 0x84, 0x01, 0x00, 0x00, 
  0x7c, 0x01, 0x00, 0x00, 0x74, 0x01, 0x00, 0x00, 0x6c, 0x01, 0x00, 0x00, 
  0x64, 0x01, 0x00, 0x00, 0x5c, 0x01, 0x00, 0x00, 0x54, 0x01, 0x00, 0x00, 
  0x4c, 0x01, 0x00, 0x00, 0x44, 0x01, 0x00, 0x00, 0x3c, 0x01, 0x00, 0x00, 
  0x34, 0x01, 0x00, 0x00, 0x2c, 0x01, 0x00, 0x00, 0x24, 0x01, 0x00, 0x00, 
  0x1c, 0x01, 0x00, 0x00, 0x14, 0x01, 0x00, 0x00, 0x0c, 0x01, 0x00, 0x00, 
  0x04, 0x01, 0x00, 0x00, 0xfc, 0x00, 0x00, 0x00, 0xf4, 0x00, 0x00, 0x00, 
  0xec, 0x00, 0x00, 0x00, 0xe4, 0x00, 0x00, 0x00, 0xdc, 0x00, 0x00, 0x00, 
  0xd4, 0x00, 0x00, 0x00, 0xcc, 0x00, 0x00, 0x00, 0xc4, 0x00, 0x00, 0x00, 
  0xbc, 0x00, 0x00, 0x00, 0xb4, 0x00, 0x00, 0x00, 0xac, 0x00, 0x00, 0x00, 
  0xa4, 0x00, 0x00, 0x00, 0x9c, 0x00, 0x00, 0x00, 0x94, 0x00, 0x00, 0x00, 
  0x74, 0x00, 0x00, 0x00, 0x04, 0x00, 0x00, 0x00, 0x7e, 0x9a, 0xff, 0xff, 
  0x04, 0x00, 0x00, 0x00, 0x60, 0x00, 0x00, 0x00, 0x0c, 0x00, 0x00, 0x00, 
  0x08, 0x00, 0x0e, 0x00, 0x08, 0x00, 0x04, 0x00, 0x08, 0x00, 0x00, 0x00, 
  0x10, 0x00, 0x00, 0x00, 0x28, 0x00, 0x00, 0x00, 0x00, 0x00, 0x06, 0x00, 
  0x08, 0x00, 0x04, 0x00, 0x06, 0x00, 0x00, 0x00, 0x04, 0x00, 0x00, 0x00, 
  0x01, 0x00, 0x00, 0x00, 0xeb, 0x03, 0x00, 0x00, 0x0c, 0x00, 0x18, 0x00, 
  0x14, 0x00, 0x10, 0x00, 0x0c, 0x00, 0x04, 0x00, 0x0c, 0x00, 0x00, 0x00, 
  0xe3, 0x27, 0xf4, 0xef, 0xae, 0x9c, 0x50, 0xdb, 0x02, 0x00, 0x00, 0x00, 
  0x02, 0x00, 0x00, 0x00, 0x04, 0x00, 0x00, 0x00, 0x06, 0x00, 0x00, 0x00, 
  0x32, 0x2e, 0x32, 0x31, 0x2e, 0x30, 0x00, 0x00, 0xea, 0x9a, 0xff, 0xff, 
  0x04, 0x00, 0x00, 0x00, 0x10, 0x00, 0x00, 0x00, 0x31, 0x2e, 0x31, 0x34, 
  0x2e, 0x30, 0x00, 0x00, 0x00, 0x00, 0x00, 0x00, 0x00, 0x00, 0x00, 0x00, 
  0x84, 0xc8, 0xfe, 0xff, 0x88, 0xc8, 0xfe, 0xff, 0x8c, 0xc8, 0xfe, 0xff, 
  0x90, 0xc8, 0xfe, 0xff, 0x94, 0xc8, 0xfe, 0xff, 0x98, 0xc8, 0xfe, 0xff, 
  0x9c, 0xc8, 0xfe, 0xff, 0xa0, 0xc8, 0xfe, 0xff, 0xa4, 0xc8, 0xfe, 0xff, 
  0xa8, 0xc8, 0xfe, 0xff, 0xac, 0xc8, 0xfe, 0xff, 0xb0, 0xc8, 0xfe, 0xff, 
  0xb4, 0xc8, 0xfe, 0xff, 0xb8, 0xc8, 0xfe, 0xff, 0xbc, 0xc8, 0xfe, 0xff, 
  0xc0, 0xc8, 0xfe, 0xff, 0xc4, 0xc8, 0xfe, 0xff, 0xc8, 0xc8, 0xfe, 0xff, 
  0xcc, 0xc8, 0xfe, 0xff, 0xd0, 0xc8, 0xfe, 0xff, 0xd4, 0xc8, 0xfe, 0xff, 
  0xd8, 0xc8, 0xfe, 0xff, 0xdc, 0xc8, 0xfe, 0xff, 0xe0, 0xc8, 0xfe, 0xff, 
  0xe4, 0xc8, 0xfe, 0xff, 0xe8, 0xc8, 0xfe, 0xff, 0xec, 0xc8, 0xfe, 0xff, 
  0xf0, 0xc8, 0xfe, 0xff, 0xf4, 0xc8, 0xfe, 0xff, 0xf8, 0xc8, 0xfe, 0xff, 
  0xfc, 0xc8, 0xfe, 0xff, 0x00, 0xc9, 0xfe, 0xff, 0x04, 0xc9, 0xfe, 0xff, 
  0x08, 0xc9, 0xfe, 0xff, 0x0c, 0xc9, 0xfe, 0xff, 0x10, 0xc9, 0xfe, 0xff, 
  0x14, 0xc9, 0xfe, 0xff, 0x18, 0xc9, 0xfe, 0xff, 0x1c, 0xc9, 0xfe, 0xff, 
  0x20, 0xc9, 0xfe, 0xff, 0x24, 0xc9, 0xfe, 0xff, 0x28, 0xc9, 0xfe, 0xff, 
  0x2c, 0xc9, 0xfe, 0xff, 0x30, 0xc9, 0xfe, 0xff, 0x34, 0xc9, 0xfe, 0xff, 
  0x38, 0xc9, 0xfe, 0xff, 0x3c, 0xc9, 0xfe, 0xff, 0x40, 0xc9, 0xfe, 0xff, 
  0x44, 0xc9, 0xfe, 0xff, 0x48, 0xc9, 0xfe, 0xff, 0x4c, 0xc9, 0xfe, 0xff, 
  0x50, 0xc9, 0xfe, 0xff, 0x54, 0xc9, 0xfe, 0xff, 0x58, 0xc9, 0xfe, 0xff, 
  0x5c, 0xc9, 0xfe, 0xff, 0x60, 0xc9, 0xfe, 0xff, 0x64, 0xc9, 0xfe, 0xff, 
  0x68, 0xc9, 0xfe, 0xff, 0x6c, 0xc9, 0xfe, 0xff, 0x70, 0xc9, 0xfe, 0xff, 
  0x74, 0xc9, 0xfe, 0xff, 0x78, 0xc9, 0xfe, 0xff, 0x7c, 0xc9, 0xfe, 0xff, 
  0x80, 0xc9, 0xfe, 0xff, 0x84, 0xc9, 0xfe, 0xff, 0x88, 0xc9, 0xfe, 0xff, 
  0x8c, 0xc9, 0xfe, 0xff, 0x90, 0xc9, 0xfe, 0xff, 0x94, 0xc9, 0xfe, 0xff, 
  0x98, 0xc9, 0xfe, 0xff, 0x9c, 0xc9, 0xfe, 0xff, 0xa0, 0xc9, 0xfe, 0xff, 
  0xa4, 0xc9, 0xfe, 0xff, 0xa8, 0xc9, 0xfe, 0xff, 0xac, 0xc9, 0xfe, 0xff, 
  0xb0, 0xc9, 0xfe, 0xff, 0xb4, 0xc9, 0xfe, 0xff, 0xb8, 0xc9, 0xfe, 0xff, 
  0xbc, 0xc9, 0xfe, 0xff, 0xc0, 0xc9, 0xfe, 0xff, 0xc4, 0xc9, 0xfe, 0xff, 
  0xc8, 0xc9, 0xfe, 0xff, 0xcc, 0xc9, 0xfe, 0xff, 0xd0, 0xc9, 0xfe, 0xff, 
  0xd4, 0xc9, 0xfe, 0xff, 0xd8, 0xc9, 0xfe, 0xff, 0xdc, 0xc9, 0xfe, 0xff, 
  0xe0, 0xc9, 0xfe, 0xff, 0xe4, 0xc9, 0xfe, 0xff, 0xe8, 0xc9, 0xfe, 0xff, 
  0xec, 0xc9, 0xfe, 0xff, 0xf0, 0xc9, 0xfe, 0xff, 0xf4, 0xc9, 0xfe, 0xff, 
  0xf8, 0xc9, 0xfe, 0xff, 0xfc, 0xc9, 0xfe, 0xff, 0x00, 0xca, 0xfe, 0xff, 
  0x04, 0xca, 0xfe, 0xff, 0x08, 0xca, 0xfe, 0xff, 0x0c, 0xca, 0xfe, 0xff, 
  0x10, 0xca, 0xfe, 0xff, 0x14, 0xca, 0xfe, 0xff, 0x18, 0xca, 0xfe, 0xff, 
  0x9e, 0x9c, 0xff, 0xff, 0x04, 0x00, 0x00, 0x00, 0x20, 0x01, 0x00, 0x00, 
  0xe0, 0xff, 0xca, 0x15, 0xe4, 0x26, 0xce, 0x00, 0x5f, 0x7f, 0xf3, 0xe4, 
  0x03, 0x3a, 0x32, 0xf3, 0xcc, 0x27, 0x16, 0xaf, 0xdc, 0x95, 0x30, 0x04, 
  0xc0, 0x2e, 0x23, 0xa4, 0xd9, 0x1b, 0x28, 0x23, 0xfb, 0x81, 0x0f, 0x07, 
  0x7f, 0xfb, 0x4f, 0x0d, 0x47, 0xb0, 0xb3, 0x15, 0x53, 0x4e, 0xfe, 0x22, 
  0x64, 0x43, 0xb8, 0xfc, 0xf2, 0xba, 0x7f, 0x14, 0x05, 0x0f, 0x3f, 0x39, 
  0x03, 0x47, 0x61, 0xe1, 0x2a, 0x3f, 0x29, 0xa4, 0x32, 0x98, 0xa1, 0xb2, 
  0xc8, 0x18, 0xfd, 0x02, 0xa2, 0xb8, 0x41, 0x81, 0x0b, 0xfe, 0xd5, 0xef, 
  0xcd, 0x84, 0xd2, 0x20, 0xcc, 0xe2, 0x06, 0x25, 0xfe, 0x0b, 0x7f, 0xe5, 
  0x38, 0x20, 0xc0, 0xfd, 0x6d, 0xf7, 0xb6, 0xb7, 0x40, 0xf1, 0x24, 0x0e, 
  0x8a, 0x89, 0x34, 0xb2, 0xda, 0x4a, 0xaa, 0xc5, 0x5d, 0x7f, 0xc5, 0x24, 
  0x26, 0x48, 0x26, 0xaf, 0x31, 0x0c, 0xcf, 0x18, 0xdb, 0xf3, 0xaf, 0x79, 
  0xf4, 0xfc, 0xeb, 0xef, 0x89, 0x3f, 0x3c, 0xe9, 0x39, 0xf9, 0xa8, 0x7f, 
  0x27, 0xbd, 0xd4, 0x50, 0xea, 0xb7, 0x5c, 0xd5, 0xab, 0xd3, 0x3f, 0xc8, 
  0xdc, 0x31, 0xc4, 0xec, 0xf2, 0x7f, 0xec, 0x29, 0xee, 0x14, 0xbb, 0x9e, 
  0xad, 0xd2, 0xb3, 0xc3, 0xf8, 0xf1, 0x59, 0x2a, 0x3e, 0xf8, 0xea, 0x81, 
  0x21, 0x3d, 0x3b, 0x20, 0x5f, 0xd0, 0xc0, 0x23, 0xc5, 0x9f, 0xe1, 0xe4, 
  0x81, 0xf2, 0x06, 0xec, 0x1b, 0xae, 0xdc, 0x40, 0xe8, 0x57, 0xf9, 0x81, 
  0x10, 0xc5, 0xfd, 0x5f, 0x08, 0xe6, 0x0e, 0xfb, 0x13, 0x70, 0x17, 0x9f, 
  0xd4, 0x3c, 0x34, 0x7e, 0x31, 0x5d, 0x07, 0xf5, 0xd2, 0x33, 0xc9, 0xef, 
  0x1d, 0xb6, 0xce, 0x7f, 0xfa, 0x7c, 0x14, 0x7f, 0xc6, 0xc0, 0xda, 0x13, 
  0xe8, 0x72, 0xf2, 0xf9, 0x19, 0x4f, 0xff, 0xb4, 0x12, 0x5a, 0xf2, 0x2e, 
  0x1d, 0xc7, 0x41, 0x02, 0x7d, 0x3e, 0x33, 0xa0, 0x5f, 0x32, 0xfb, 0x44, 
  0xe0, 0x81, 0xd1, 0xc9, 0xf5, 0x55, 0xc1, 0xd6, 0x07, 0xf8, 0xb3, 0x65, 
  0x13, 0x1d, 0xc1, 0x44, 0x2c, 0xee, 0xbd, 0xab, 0x81, 0xa3, 0x07, 0x55, 
  0xca, 0x9d, 0xff, 0xff, 0x04, 0x00, 0x00, 0x00, 0x40, 0x00, 0x00, 0x00, 
  0x3e, 0x00, 0x00, 0x00, 0xa5, 0xff, 0xff, 0xff, 0xa0, 0x04, 0x00, 0x00, 
  0x3b, 0xfe, 0xff, 0xff, 0x97, 0xf5, 0xff, 0xff, 0x5e, 0xff, 0xff, 0xff, 
  0x4c, 0xfb, 0xff, 0xff, 0xb8, 0xff, 0xff, 0xff, 0x7f, 0xfa, 0xff, 0xff, 
  0x28, 0x02, 0x00, 0x00, 0x99, 0x03, 0x00, 0x00, 0xff, 0xff, 0xff, 0xff, 
  0x37, 0xfe, 0xff, 0xff, 0x5e, 0x05, 0x00, 0x00, 0x97, 0xf1, 0xff, 0xff, 
  0x6f, 0xf8, 0xff, 0xff, 0x16, 0x9e, 0xff, 0xff, 0x04, 0x00, 0x00, 0x00, 
  0x30, 0x00, 0x00, 0x00, 0x40, 0xc0, 0xe3, 0x44, 0xb7, 0x09, 0x81, 0xc6, 
  0xab, 0x26, 0x5b, 0x81, 0x7f, 0xf9, 0x7f, 0x81, 0xb3, 0x17, 0x81, 0x7f, 
  0x8d, 0x7f, 0xe8, 0x81, 0x7f, 0x10, 0x61, 0x4d, 0x4c, 0x7f, 0xf1, 0x24, 
  0x81, 0x81, 0xcf, 0x50, 0x81, 0x01, 0x4c, 0xd2, 0xb8, 0x7f, 0x7f, 0x2d, 
  0xf8, 0xce, 0x0c, 0xd7, 0xd0, 0xcb, 0xfe, 0xff, 0xd4, 0xcb, 0xfe, 0xff, 
  0xd8, 0xcb, 0xfe, 0xff, 0xdc, 0xcb, 0xfe, 0xff, 0x62, 0x9e, 0xff, 0xff, 
  0x04, 0x00, 0x00, 0x00, 0x40, 0x00, 0x00, 0x00, 0x00, 0x00, 0x00, 0x00, 
  0x00, 0x00, 0x00, 0x00, 0x00, 0x00, 0x00, 0x00, 0x00, 0x00, 0x00, 0x00, 
  0x00, 0x00, 0x00, 0x00, 0x00, 0x00, 0x00, 0x00, 0x00, 0x00, 0x00, 0x00, 
  0x00, 0x00, 0x00, 0x00, 0x00, 0x00, 0x00, 0x00, 0x00, 0x00, 0x00, 0x00, 
  0x00, 0x00, 0x00, 0x00, 0x00, 0x00, 0x00, 0x00, 0x00, 0x00, 0x00, 0x00, 
  0x00, 0x00, 0x00, 0x00, 0x00, 0x00, 0x00, 0x00, 0x00, 0x00, 0x00, 0x00, 
  0xae, 0x9e, 0xff, 0xff, 0x04, 0x00, 0x00, 0x00, 0x00, 0x01, 0x00, 0x00, 
  0x0a, 0xe1, 0xd8, 0x38, 0x09, 0x7f, 0xa9, 0x08, 0x85, 0x54, 0x25, 0xdc, 
  0xe4, 0xd5, 0xaa, 0xc8, 0x81, 0x0f, 0xd1, 0x4c, 0x09, 0x3c, 0xd0, 0xdc, 
  0x5b, 0x41, 0x52, 0xeb, 0x0e, 0x2d, 0x31, 0x49, 0x62, 0x09, 0x37, 0xd7, 
  0x9b, 0x68, 0xce, 0xc9, 0x7f, 0xcb, 0x1e, 0x3e, 0x23, 0x18, 0xd9, 0x98, 
  0xaf, 0x04, 0xf2, 0x18, 0xc3, 0x24, 0xbb, 0xdd, 0x81, 0x3b, 0xa8, 0x93, 
  0xcb, 0x88, 0xf1, 0xf0, 0x99, 0xd8, 0x81, 0x4c, 0xe6, 0xf4, 0x73, 0xd4, 
  0x2d, 0x1d, 0x34, 0x33, 0x0f, 0xf4, 0xc9, 0xed, 0x7f, 0xde, 0x3d, 0xe6, 
  0xcc, 0x31, 0x56, 0x32, 0xbd, 0x04, 0xe2, 0x86, 0x44, 0xfe, 0x6a, 0xda, 
  0xfd, 0x0f, 0xf7, 0x39, 0x27, 0x1d, 0x4b, 0xfb, 0xdf, 0xbc, 0x83, 0x93, 
  0x63, 0x2f, 0x81, 0x17, 0xdd, 0xea, 0xf0, 0xb5, 0xf4, 0x16, 0x4c, 0x0a, 
  0x7f, 0x04, 0xf8, 0x2a, 0x13, 0x3a, 0xea, 0xde, 0x00, 0xad, 0x07, 0x27, 
  0xf5, 0x81, 0xf5, 0x3a, 0xec, 0xf4, 0xcf, 0x05, 0xcf, 0x0f, 0xe7, 0xee, 
  0x0e, 0x9a, 0xf5, 0x41, 0x44, 0x50, 0x14, 0x96, 0xf4, 0xa7, 0x04, 0x40, 
  0xfa, 0x06, 0x7f, 0x0b, 0x27, 0xcf, 0x5c, 0x81, 0x5e, 0x32, 0x03, 0xaa, 
  0x59, 0xea, 0x2e, 0xed, 0x93, 0xb3, 0x08, 0xb9, 0x3f, 0x7f, 0x22, 0x46, 
  0xb7, 0xbe, 0xc5, 0x0a, 0x1c, 0xb8, 0x4c, 0x07, 0xa1, 0xd1, 0x10, 0xd8, 
  0xb1, 0x11, 0xbe, 0x09, 0xa0, 0x3e, 0xdf, 0x7f, 0x55, 0x2c, 0x75, 0xbe, 
  0x31, 0x13, 0x86, 0x70, 0xe8, 0x3c, 0xea, 0xf4, 0xee, 0x08, 0xe8, 0x16, 
  0x1e, 0x39, 0x03, 0x38, 0x24, 0x7f, 0xc1, 0xb5, 0xfc, 0xf2, 0x6d, 0xb6, 
  0x7f, 0x18, 0x1f, 0xff, 0x9b, 0xcc, 0x36, 0x19, 0xeb, 0xee, 0xe1, 0x0e, 
  0x02, 0xf0, 0x10, 0xa9, 0x10, 0x40, 0x7f, 0xea, 0x4c, 0x2d, 0xbb, 0x10, 
  0x3e, 0x0d, 0xb2, 0x28, 0xba, 0x9f, 0xff, 0xff, 0x04, 0x00, 0x00, 0x00, 
  0x40, 0x00, 0x00, 0x00, 0x57, 0xfa, 0xff, 0xff, 0x24, 0xf8, 0xff, 0xff, 
  0xaa, 0xfd, 0xff, 0xff, 0x42, 0xff, 0xff, 0xff, 0xf1, 0xf8, 0xff, 0xff, 
  0x22, 0xff, 0xff, 0xff, 0x3e, 0x00, 0x00, 0x00, 0xb5, 0xff, 0xff, 0xff, 
  0x20, 0x01, 0x00, 0x00, 0xf4, 0xfd, 0xff, 0xff, 0x6e, 0x06, 0x00, 0x00, 
  0xcb, 0xff, 0xff, 0xff, 0xcc, 0xfb, 0xff, 0xff, 0x1e, 0xfd, 0xff, 0xff, 
  0x27, 0x08, 0x00, 0x00, 0xfc, 0x02, 0x00, 0x00, 0x06, 0xa0, 0xff, 0xff, 
  0x04, 0x00, 0x00, 0x00, 0x30, 0x00, 0x00, 0x00, 0x81, 0x81, 0x81, 0x81, 
  0x01, 0x8b, 0xe0, 0xf7, 0x26, 0x81, 0x81, 0x7f, 0x81, 0x7f, 0xae, 0x73, 
  0xcd, 0x49, 0xd8, 0x55, 0x89, 0x1b, 0x7f, 0x12, 0x7f, 0xea, 0x46, 0xb3, 
  0xbd, 0xc1, 0xe2, 0x7f, 0x0f, 0x6b, 0x52, 0x76, 0x7f, 0x81, 0x79, 0x7f, 
  0x2a, 0xd4, 0xbd, 0xaf, 0x11, 0xe2, 0x7f, 0xbc, 0x42, 0xa0, 0xff, 0xff, 
  0x04, 0x00, 0x00, 0x00, 0x00, 0x01, 0x00, 0x00, 0x27, 0x55, 0xe9, 0xe9, 
  0x7f, 0x2d, 0xe7, 0x13, 0x00, 0xe2, 0x0c, 0xfa, 0xd8, 0xf6, 0xa9, 0x51, 
  0xbe, 0x45, 0x35, 0x17, 0xba, 0x29, 0xd8, 0x15, 0x73, 0x31, 0x81, 0x5c, 
  0x1a, 0x3d, 0x06, 0xdf, 0xbf, 0x01, 0x25, 0x46, 0xcc, 0x07, 0x1c, 0x7f, 
  0xb5, 0xfb, 0xf9, 0x35, 0x03, 0xb0, 0xfe, 0x25, 0x2e, 0x7f, 0xce, 0x22, 
  0xa7, 0x3a, 0x0a, 0x29, 0x40, 0xf4, 0xfa, 0x0e, 0x3d, 0x20, 0xec, 0x3a, 
  0xaa, 0x7f, 0x9e, 0x13, 0x10, 0x99, 0x4f, 0x61, 0xe6, 0x65, 0xbc, 0x20, 
  0x62, 0x73, 0x01, 0xc6, 0x3b, 0x2e, 0x39, 0x52, 0x0a, 0x12, 0x23, 0x2a, 
  0xfe, 0x28, 0xda, 0xa7, 0x15, 0xe3, 0x81, 0x13, 0x81, 0xe5, 0x03, 0x0d, 
  0xe0, 0x17, 0x46, 0xcc, 0x25, 0xda, 0xbb, 0xdc, 0xbf, 0x40, 0x16, 0xc9, 
  0xc4, 0xa2, 0x26, 0xa4, 0xfe, 0xe8, 0x28, 0x2e, 0xf8, 0x2f, 0x2d, 0x33, 
  0xe6, 0x81, 0x3e, 0xd2, 0xf4, 0x7f, 0xd5, 0x46, 0xf1, 0xe5, 0xbf, 0x5a, 
  0x4f, 0xe7, 0xd9, 0x01, 0x9c, 0xcb, 0xee, 0x1f, 0xb9, 0x7f, 0x2b, 0x00, 
  0xd6, 0xe1, 0x01, 0xb1, 0xb2, 0xcb, 0x01, 0x25, 0x9a, 0x44, 0x27, 0x2b, 
  0xef, 0x3c, 0xaa, 0x4a, 0x00, 0x3b, 0x15, 0x9a, 0xb9, 0x53, 0xf2, 0x19, 
  0x6b, 0x81, 0xf7, 0x58, 0x18, 0x7f, 0x7f, 0x9e, 0x07, 0x72, 0xec, 0x2b, 
  0xb9, 0xb2, 0x69, 0xb9, 0xea, 0xa1, 0x07, 0x34, 0x81, 0x52, 0x09, 0xd7, 
  0xa4, 0xb5, 0xc4, 0xb7, 0xc1, 0xa3, 0x19, 0x07, 0x13, 0xfc, 0xca, 0x9b, 
  0x49, 0x31, 0x7f, 0x35, 0xcb, 0x23, 0x09, 0x71, 0x2e, 0x03, 0xf2, 0x51, 
  0xc6, 0x0a, 0x2c, 0x49, 0xe2, 0xf8, 0xec, 0x44, 0x42, 0x81, 0xed, 0xdc, 
  0x10, 0x26, 0x29, 0xc6, 0x00, 0x28, 0xb9, 0x05, 0xb3, 0x1a, 0xec, 0x55, 
  0xec, 0x31, 0x56, 0x7b, 0x0f, 0xf1, 0x7f, 0x6f, 0xa7, 0xaa, 0xc6, 0xcb, 
  0x4e, 0xa1, 0xff, 0xff, 0x04, 0x00, 0x00, 0x00, 0x40, 0x00, 0x00, 0x00, 
  0x30, 0xfb, 0xff, 0xff, 0x70, 0xfa, 0xff, 0xff, 0x71, 0xfc, 0xff, 0xff, 
  0x83, 0xfd, 0xff, 0xff, 0xf4, 0xfa, 0xff, 0xff, 0x18, 0xfe, 0xff, 0xff, 
  0xb0, 0xf9, 0xff, 0xff, 0xf2, 0x02, 0x00, 0x00, 0xdf, 0xf5, 0xff, 0xff, 
  0xa2, 0xfd, 0xff, 0xff, 0xb3, 0x00, 0x00, 0x00, 0xc1, 0xff, 0xff, 0xff, 
  0x5d, 0x02, 0x00, 0x00, 0xe2, 0xfb, 0xff, 0xff, 0x8b, 0xfe, 0xff, 0xff, 
  0xd3, 0xff, 0xff, 0xff, 0x9a, 0xa1, 0xff, 0xff, 0x04, 0x00, 0x00, 0x00, 
  0x40, 0x00, 0x00, 0x00, 0xde, 0x90, 0x16, 0xde, 0x9f, 0x2c, 0xe4, 0xea, 
  0xef, 0x8a, 0x75, 0x6a, 0x3b, 0x83, 0x56, 0x7f, 0x45, 0x9c, 0x7f, 0x5c, 
  0xd5, 0x51, 0x8f, 0x28, 0x19, 0x35, 0x06, 0xe1, 0x0c, 0x52, 0xcc, 0x41, 
  0xc3, 0x53, 0x81, 0xfb, 0x1b, 0x0f, 0x0c, 0x4b, 0x0c, 0xec, 0xe3, 0x13, 
  0x2b, 0xe1, 0x2b, 0x02, 0x07, 0x81, 0xaa, 0xe8, 0xcc, 0xa2, 0xed, 0xc3, 
  0x47, 0x63, 0x9d, 0xfd, 0x71, 0xd8, 0x4f, 0x05, 0xe6, 0xa1, 0xff, 0xff, 
  0x04, 0x00, 0x00, 0x00, 0x10, 0x00, 0x00, 0x00, 0x00, 0x00, 0x00, 0x00, 
  0x00, 0x00, 0x00, 0x00, 0x00, 0x00, 0x00, 0x00, 0x00, 0x00, 0x00, 0x00, 
  0x02, 0xa2, 0xff, 0xff, 0x04, 0x00, 0x00, 0x00, 0x40, 0x00, 0x00, 0x00, 
  0x1d, 0x71, 0xb7, 0x81, 0xff, 0x1e, 0x81, 0x1b, 0xe4, 0xb9, 0xc5, 0x81, 
  0x1a, 0x16, 0xd8, 0x81, 0xaa, 0x01, 0x7f, 0xff, 0x7f, 0x20, 0xd1, 0xdd, 
  0x7f, 0x1c, 0x0b, 0x0e, 0xce, 0x7f, 0xa0, 0x40, 0x40, 0x27, 0x6a, 0x81, 
  0xa1, 0x4e, 0x81, 0xac, 0x7f, 0xb8, 0x64, 0xef, 0xb2, 0x78, 0x81, 0xc0, 
  0xfb, 0xe1, 0x81, 0xc2, 0x68, 0xc6, 0x4c, 0x81, 0xa3, 0x81, 0x0c, 0xcd, 
  0xcc, 0x81, 0xab, 0x95, 0x4e, 0xa2, 0xff, 0xff, 0x04, 0x00, 0x00, 0x00, 
  0x00, 0x02, 0x00, 0x00, 0x4f, 0xc4, 0x58, 0x81, 0xc2, 0x60, 0xe5, 0x1e, 
  0x36, 0xf5, 0xeb, 0x03, 0x09, 0x65, 0xc1, 0xf1, 0xed, 0x24, 0x24, 0x17, 
  0x39, 0x2f, 0xf5, 0x2b, 0x7f, 0x45, 0x18, 0x5a, 0x4f, 0xfa, 0xe1, 0x73, 
  0xe0, 0x6e, 0x2b, 0x31, 0xf6, 0x3a, 0x1c, 0xef, 0x13, 0x00, 0x7f, 0xe5, 
  0x75, 0x4a, 0xe6, 0x16, 0xb0, 0x41, 0x3c, 0x07, 0xbb, 0xcc, 0x4c, 0xe9, 
  0x1a, 0x21, 0x41, 0x5d, 0x6c, 0x7f, 0x00, 0x2a, 0xdf, 0x52, 0x91, 0x0c, 
  0xb7, 0x8a, 0x78, 0x3e, 0xd4, 0x58, 0x85, 0x9b, 0x00, 0x6e, 0x08, 0x81, 
  0x53, 0xfd, 0x0c, 0xed, 0xf5, 0x1b, 0x1e, 0xed, 0x7f, 0xfc, 0xff, 0x02, 
  0xdd, 0xf9, 0x13, 0x31, 0x13, 0x9f, 0xf2, 0xcc, 0xbb, 0x81, 0xfa, 0xe5, 
  0xe7, 0x00, 0xe8, 0x96, 0xcc, 0x15, 0xf1, 0xfb, 0xf6, 0x81, 0xf8, 0xbd, 
  0xb9, 0x0d, 0x93, 0x24, 0xe5, 0xbd, 0xde, 0xf9, 0xf0, 0x01, 0xfb, 0x33, 
  0xb8, 0x30, 0x62, 0x6d, 0xc4, 0xa3, 0x7e, 0xee, 0xe2, 0x7f, 0x67, 0x37, 
  0x35, 0x4f, 0x1f, 0xef, 0x81, 0xb7, 0x45, 0x2c, 0xd3, 0x5a, 0x88, 0xfc, 
  0x06, 0x9f, 0x25, 0x55, 0xd9, 0x36, 0xc5, 0x06, 0x23, 0xf6, 0x4d, 0x7f, 
  0x29, 0x62, 0xc0, 0x50, 0x2f, 0x23, 0x44, 0x1b, 0xff, 0x4e, 0x17, 0x3d, 
  0x58, 0x4c, 0x7f, 0x5c, 0xa9, 0xec, 0x6a, 0xbf, 0x19, 0xfb, 0x42, 0x28, 
  0xdc, 0x4d, 0xa9, 0x00, 0x19, 0x16, 0x07, 0x21, 0x40, 0x3f, 0xec, 0x4f, 
  0xd1, 0x30, 0x5a, 0x18, 0x0b, 0x31, 0x7f, 0x69, 0x1d, 0x47, 0xbe, 0x19, 
  0x35, 0x3d, 0xa8, 0xff, 0x7f, 0x24, 0x07, 0xff, 0x3e, 0xfa, 0xf7, 0x20, 
  0x24, 0x5f, 0xf1, 0xff, 0x39, 0xf9, 0x7f, 0x7b, 0xfe, 0x36, 0x9b, 0x44, 
  0xfe, 0x2e, 0x2d, 0xec, 0xf0, 0xb3, 0x1c, 0x5e, 0x6b, 0x11, 0x2b, 0x3f, 
  0x7f, 0x37, 0x1a, 0xfe, 0x52, 0xcc, 0xd2, 0x61, 0xcd, 0xe6, 0x81, 0x94, 
  0x34, 0x03, 0xeb, 0xfc, 0x1f, 0x0a, 0xdb, 0x8a, 0xf8, 0x85, 0x57, 0xd6, 
  0x54, 0x2c, 0x08, 0x0d, 0x7f, 0x6b, 0x4a, 0x17, 0x65, 0x3b, 0x04, 0x16, 
  0x3e, 0x40, 0x0d, 0x45, 0xf2, 0x3a, 0xd1, 0x17, 0xcc, 0xf7, 0x14, 0x1c, 
  0xcb, 0xa6, 0x07, 0x1f, 0x0b, 0x81, 0xda, 0xed, 0x4c, 0x15, 0xed, 0x15, 
  0x2a, 0xc0, 0x7f, 0xbf, 0xcb, 0x39, 0x22, 0x2b, 0x0e, 0x6a, 0x22, 0x3f, 
  0x17, 0xe6, 0x05, 0x06, 0x2b, 0x6c, 0x03, 0xdc, 0x5c, 0xf9, 0xf6, 0x28, 
  0x07, 0x3c, 0x7f, 0x76, 0x4b, 0x47, 0xf8, 0xa5, 0xf4, 0x7f, 0xf4, 0x17, 
  0xa2, 0xd1, 0xe5, 0x41, 0x31, 0xa7, 0xf2, 0x44, 0x5f, 0xcd, 0xf0, 0x3a, 
  0x8f, 0xf0, 0xd8, 0xb4, 0xfc, 0x25, 0x20, 0x81, 0xb0, 0x40, 0xdc, 0xa6, 
  0x3a, 0x2a, 0x33, 0x3a, 0x13, 0x1b, 0xeb, 0xe5, 0xff, 0xf5, 0xdf, 0x4e, 
  0xea, 0x0b, 0x7f, 0x0d, 0x1e, 0xc9, 0xe9, 0xb6, 0xab, 0xba, 0xad, 0xc5, 
  0xeb, 0xc9, 0xf2, 0x02, 0x81, 0xc7, 0x18, 0xee, 0xc6, 0xf6, 0x1f, 0xda, 
  0x04, 0xe6, 0x20, 0x30, 0x9b, 0xa2, 0x1d, 0x05, 0xf9, 0x81, 0xfb, 0xbb, 
  0x5a, 0x22, 0x44, 0x1b, 0x25, 0x1b, 0xfb, 0xbe, 0x7f, 0xdf, 0xef, 0x68, 
  0x7e, 0x05, 0x52, 0xec, 0x23, 0x2d, 0x31, 0xb2, 0xa9, 0x32, 0xd6, 0x47, 
  0xb0, 0x81, 0x06, 0xaf, 0xf7, 0xd5, 0xc7, 0x14, 0x1d, 0x29, 0xef, 0x51, 
  0x7e, 0x3f, 0x30, 0x4f, 0x48, 0x6b, 0x7f, 0xfd, 0xfa, 0xc6, 0x20, 0x2f, 
  0x7f, 0x0a, 0x4d, 0x6f, 0xef, 0x15, 0x07, 0x20, 0xd5, 0xe7, 0xf6, 0x47, 
  0xf7, 0x22, 0x9d, 0x4c, 0x19, 0x46, 0x51, 0xaa, 0xb3, 0x8c, 0x36, 0x39, 
  0x6f, 0xed, 0xee, 0x26, 0xda, 0xe3, 0x81, 0xd7, 0x57, 0xfc, 0x28, 0x08, 
  0xc4, 0x0a, 0xf2, 0xe9, 0xee, 0x04, 0xdc, 0x0b, 0x24, 0x46, 0x81, 0x23, 
  0x5a, 0xa4, 0xff, 0xff, 0x04, 0x00, 0x00, 0x00, 0x80, 0x00, 0x00, 0x00, 
  0xc0, 0xf5, 0xff, 0xff, 0x82, 0xe8, 0xff, 0xff, 0xd8, 0xdf, 0xff, 0xff, 
  0x86, 0xe9, 0xff, 0xff, 0xdd, 0x01, 0x00, 0x00, 0xb7, 0xf4, 0xff, 0xff, 
  0x6d, 0x03, 0x00, 0x00, 0xa3, 0x06, 0x00, 0x00, 0x1c, 0xbf, 0xff, 0xff, 
  0xde, 0xf4, 0xff, 0xff, 0x17, 0xc9, 0xff, 0xff, 0xd3, 0xea, 0xff, 0xff, 
  0x97, 0xdf, 0xff, 0xff, 0xb1, 0xea, 0xff, 0xff, 0x48, 0xde, 0xff, 0xff, 
  0x74, 0xdd, 0xff, 0xff, 0x91, 0x06, 0x00, 0x00, 0x29, 0xbd, 0xff, 0xff, 
  0xf9, 0x03, 0x00, 0x00, 0x7c, 0xe9, 0xff, 0xff, 0x41, 0xde, 0xff, 0xff, 
  0x89, 0xf0, 0xff, 0xff, 0x5a, 0x03, 0x00, 0x00, 0xc3, 0xea, 0xff, 0xff, 
  0x5f, 0x13, 0x00, 0x00, 0xfe, 0x08, 0x00, 0x00, 0xdd, 0xdc, 0xff, 0xff, 
  0x75, 0xfd, 0xff, 0xff, 0x90, 0xaf, 0xff, 0xff, 0x8f, 0xe6, 0xff, 0xff, 
  0x40, 0xf9, 0xff, 0xff, 0x46, 0xf2, 0xff, 0xff, 0xe6, 0xa4, 0xff, 0xff, 
  0x04, 0x00, 0x00, 0x00, 0x30, 0x00, 0x00, 0x00, 0x23, 0x23, 0x7f, 0x26, 
  0xd4, 0xdb, 0x82, 0x27, 0xba, 0x3e, 0x49, 0xb1, 0x60, 0x13, 0x05, 0xf9, 
  0x7f, 0x7f, 0xff, 0x23, 0x6b, 0x81, 0x81, 0x7f, 0xe6, 0x7f, 0x7f, 0x81, 
  0x7f, 0x26, 0x7f, 0x7f, 0x17, 0x66, 0x86, 0x7f, 0x7f, 0x85, 0xae, 0x2f, 
  0x7f, 0x16, 0x2a, 0x89, 0x41, 0x7f, 0x57, 0x75, 0x22, 0xa5, 0xff, 0xff, 
  0x04, 0x00, 0x00, 0x00, 0x00, 0x02, 0x00, 0x00, 0x67, 0x4c, 0xfa, 0x2b, 
  0x32, 0xba, 0x7f, 0x0d, 0x90, 0x3f, 0x3f, 0x14, 0x03, 0x07, 0x3d, 0x26, 
  0xd9, 0x3b, 0xf0, 0x0c, 0x1e, 0x0e, 0x7f, 0xf9, 0xf2, 0xb9, 0xb6, 0xfe, 
  0x2e, 0xe3, 0x12, 0x09, 0xf4, 0x29, 0xd3, 0xc4, 0x3d, 0xe0, 0x22, 0xdc, 
  0xe8, 0x81, 0x02, 0xcb, 0xf5, 0xba, 0x06, 0xe7, 0x4b, 0x4b, 0x1d, 0x0f, 
  0xf2, 0xb2, 0xed, 0x07, 0x81, 0x08, 0x35, 0x0e, 0xde, 0x33, 0xa6, 0x25, 
  0xb9, 0x03, 0xb3, 0xd7, 0x81, 0xdd, 0x6e, 0x69, 0x2d, 0xfd, 0x2f, 0x0f, 
  0x36, 0x89, 0xba, 0xcb, 0x5e, 0xaf, 0xd3, 0xc8, 0x81, 0x0c, 0xff, 0x08, 
  0xd6, 0x3e, 0x24, 0x40, 0xa7, 0xc1, 0xfa, 0xb3, 0xfb, 0x89, 0xe7, 0x0d, 
  0x0e, 0x7f, 0xdb, 0xb9, 0x0f, 0xe7, 0xe2, 0x6a, 0xb2, 0x31, 0xf1, 0x17, 
  0xe9, 0x82, 0x45, 0xd9, 0x07, 0x7f, 0x48, 0xb6, 0xfe, 0x01, 0xbe, 0xf7, 
  0x31, 0xff, 0x1e, 0xea, 0x75, 0xd5, 0xc8, 0x02, 0x19, 0x24, 0x44, 0xac, 
  0x16, 0x5d, 0x70, 0x7f, 0x19, 0x2b, 0xa1, 0x20, 0xc4, 0x4f, 0x46, 0xef, 
  0x23, 0x08, 0x1a, 0x10, 0xf8, 0x7f, 0x62, 0xdc, 0xeb, 0xe7, 0x38, 0xf7, 
  0xd1, 0xb1, 0xb3, 0xde, 0x00, 0xa6, 0x59, 0x0f, 0x9d, 0xd0, 0x19, 0xe6, 
  0xd7, 0x81, 0xc1, 0xee, 0x1f, 0xfe, 0xcd, 0xf8, 0x1d, 0x0f, 0x13, 0x16, 
  0x81, 0x05, 0xea, 0x03, 0xee, 0xf4, 0xee, 0x14, 0xea, 0xec, 0x3e, 0x81, 
  0x0c, 0xe0, 0x0c, 0xcd, 0x18, 0xcf, 0x88, 0x51, 0x3b, 0x29, 0x37, 0x21, 
  0x3f, 0xbb, 0x4a, 0x81, 0xc4, 0xc0, 0xf7, 0x63, 0xcc, 0x23, 0x04, 0xc6, 
  0xc5, 0x52, 0xe9, 0x11, 0x2a, 0x81, 0x14, 0x3b, 0x28, 0xcb, 0x16, 0xb3, 
  0xea, 0x10, 0x13, 0x27, 0xbe, 0xf2, 0x23, 0xa9, 0x99, 0x1c, 0x34, 0xf9, 
  0xce, 0xc8, 0x0c, 0xca, 0x19, 0x07, 0xe8, 0x28, 0x0e, 0xcb, 0x7f, 0xaf, 
  0x26, 0x56, 0x94, 0xeb, 0x7b, 0xa5, 0x7f, 0x96, 0x0c, 0xf5, 0xd9, 0x02, 
  0xfe, 0x08, 0x9d, 0x5b, 0x08, 0x1b, 0xfa, 0x34, 0xb4, 0x0a, 0x4b, 0x36, 
  0xd7, 0x07, 0x0e, 0xa8, 0xfc, 0xd2, 0x91, 0x81, 0x0f, 0x00, 0x03, 0x2d, 
  0xd1, 0x3f, 0xe5, 0x26, 0xac, 0x13, 0xd8, 0xcf, 0xdb, 0xcd, 0x7f, 0xdc, 
  0x25, 0x61, 0x0f, 0x4c, 0x1b, 0xbe, 0x04, 0x81, 0x2f, 0xc2, 0x87, 0xaf, 
  0x9e, 0xda, 0x21, 0x0a, 0x26, 0xf1, 0xb4, 0xf6, 0x1f, 0xcc, 0x51, 0x76, 
  0x7f, 0xc0, 0xfd, 0xed, 0xdc, 0x1c, 0xc8, 0x5b, 0x11, 0xff, 0x1f, 0xd4, 
  0xe0, 0x7f, 0xf7, 0xc4, 0xe3, 0xff, 0xfb, 0x10, 0x02, 0xd0, 0xff, 0xfc, 
  0x58, 0x0d, 0xde, 0xfd, 0xa9, 0x36, 0xf1, 0xca, 0x00, 0xde, 0x81, 0xcd, 
  0x2f, 0xe8, 0xf8, 0x94, 0x67, 0x29, 0x0b, 0x42, 0x5e, 0x01, 0xee, 0x45, 
  0xf2, 0x29, 0x7f, 0xab, 0xea, 0x32, 0xfa, 0x40, 0x17, 0xfc, 0x7f, 0x2d, 
  0x2b, 0xf9, 0xcd, 0x5c, 0xd7, 0x2b, 0x38, 0xea, 0x3c, 0x49, 0x08, 0xc6, 
  0x20, 0x54, 0x02, 0xea, 0x57, 0x81, 0xc4, 0x1d, 0x7d, 0x4c, 0x55, 0xb2, 
  0x4a, 0x0a, 0xc1, 0x7d, 0x0f, 0xe0, 0x2f, 0xf8, 0x6e, 0xcb, 0xe2, 0x55, 
  0x81, 0x89, 0x32, 0x51, 0xda, 0x2e, 0xf8, 0x05, 0xc3, 0x0a, 0x27, 0x81, 
  0x9a, 0x46, 0x29, 0x4c, 0xe9, 0x1f, 0x29, 0xfb, 0xf6, 0x15, 0xcd, 0xb4, 
  0x35, 0x33, 0xeb, 0x7f, 0xe6, 0xdf, 0xba, 0x05, 0x87, 0x1f, 0xfa, 0xe6, 
  0x0c, 0x2a, 0xfc, 0xae, 0xd4, 0xfc, 0xe7, 0x81, 0xfe, 0x0e, 0xbd, 0xeb, 
  0x09, 0xab, 0x22, 0x14, 0x20, 0xe9, 0x1b, 0xb6, 0x07, 0xf1, 0xee, 0x12, 
  0x06, 0x17, 0xb0, 0xfe, 0xf5, 0x54, 0xce, 0xf0, 0x4b, 0x20, 0x2b, 0x7f, 
  0x3e, 0xc7, 0x66, 0x0f, 0xa2, 0xe0, 0x19, 0xe6, 0x28, 0x4e, 0x08, 0x81, 
  0x78, 0xfe, 0xad, 0xb7, 0x2e, 0xa7, 0xff, 0xff, 0x04, 0x00, 0x00, 0x00, 
  0x80, 0x00, 0x00, 0x00, 0xd6, 0xf7, 0xff, 0xff, 0xc9, 0x02, 0x00, 0x00, 
  0x51, 0x02, 0x00, 0x00, 0x74, 0xfb, 0xff, 0xff, 0x26, 0x06, 0x00, 0x00, 
  0xd8, 0x04, 0x00, 0x00, 0xf8, 0x04, 0x00, 0x00, 0xec, 0x05, 0x00, 0x00, 
  0xb3, 0xff, 0xff, 0xff, 0x6b, 0xfb, 0xff, 0xff, 0xef, 0x06, 0x00, 0x00, 
  0x33, 0x01, 0x00, 0x00, 0x29, 0x02, 0x00, 0x00, 0x7c, 0xfd, 0xff, 0xff, 
  0xe2, 0x02, 0x00, 0x00, 0xc9, 0x00, 0x00, 0x00, 0x67, 0x00, 0x00, 0x00, 
  0xbe, 0x05, 0x00, 0x00, 0x10, 0xff, 0xff, 0xff, 0xbf, 0xff, 0xff, 0xff, 
  0x82, 0x01, 0x00, 0x00, 0xa1, 0x05, 0x00, 0x00, 0x73, 0x03, 0x00, 0x00, 
  0xc4, 0xf0, 0xff, 0xff, 0x25, 0xf9, 0xff, 0xff, 0xeb, 0xf9, 0xff, 0xff, 
  0xc6, 0xff, 0xff, 0xff, 0xa0, 0x05, 0x00, 0x00, 0xeb, 0xfc, 0xff, 0xff, 
  0x69, 0x02, 0x00, 0x00, 0xf6, 0xf9, 0xff, 0xff, 0xbf, 0xfd, 0xff, 0xff, 
  0xba, 0xa7, 0xff, 0xff, 0x04, 0x00, 0x00, 0x00, 0x60, 0x00, 0x00, 0x00, 
  0x1b, 0x81, 0xcb, 0x51, 0xfc, 0x44, 0x81, 0x49, 0x65, 0x81, 0x2b, 0x81, 
  0x5a, 0xfe, 0xa8, 0x66, 0x81, 0xc5, 0x58, 0x79, 0xc5, 0xab, 0x06, 0x5e, 
  0x7f, 0xf6, 0xc8, 0xcd, 0x81, 0x7f, 0x37, 0x7f, 0x7f, 0xa9, 0x81, 0x70, 
  0x7f, 0x3e, 0xb5, 0x16, 0x7f, 0xe6, 0x7f, 0x8d, 0x0d, 0x49, 0xcc, 0x7f, 
  0x59, 0x81, 0x6b, 0xfb, 0x81, 0x9d, 0x7f, 0x6f, 0x49, 0x8a, 0x81, 0xe6, 
  0x17, 0x51, 0x76, 0xbb, 0x7d, 0xf0, 0x95, 0x7f, 0xdb, 0x7f, 0xa0, 0x7f, 
  0xec, 0x55, 0x65, 0xd1, 0x7f, 0x7f, 0x81, 0xb8, 0x63, 0x19, 0x7f, 0x7f, 
  0x8d, 0x81, 0xbc, 0x7f, 0xf7, 0x7f, 0xcd, 0x7f, 0x70, 0xa7, 0x7f, 0x2c, 
  0xa4, 0xd5, 0xfe, 0xff, 0xa8, 0xd5, 0xfe, 0xff, 0xac, 0xd5, 0xfe, 0xff, 
  0xb0, 0xd5, 0xfe, 0xff, 0xb4, 0xd5, 0xfe, 0xff, 0x3a, 0xa8, 0xff, 0xff, 
  0x04, 0x00, 0x00, 0x00, 0x80, 0x00, 0x00, 0x00, 0x00, 0x00, 0x00, 0x00, 
  0x00, 0x00, 0x00, 0x00, 0x00, 0x00, 0x00, 0x00, 0x00, 0x00, 0x00, 0x00, 
  0x00, 0x00, 0x00, 0x00, 0x00, 0x00, 0x00, 0x00, 0x00, 0x00, 0x00, 0x00, 
  0x00, 0x00, 0x00, 0x00, 0x00, 0x00, 0x00, 0x00, 0x00, 0x00, 0x00, 0x00, 
  0x00, 0x00, 0x00, 0x00, 0x00, 0x00, 0x00, 0x00, 0x00, 0x00, 0x00, 0x00, 
  0x00, 0x00, 0x00, 0x00, 0x00, 0x00, 0x00, 0x00, 0x00, 0x00, 0x00, 0x00, 
  0x00, 0x00, 0x00, 0x00, 0x00, 0x00, 0x00, 0x00, 0x00, 0x00, 0x00, 0x00, 
  0x00, 0x00, 0x00, 0x00, 0x00, 0x00, 0x00, 0x00, 0x00, 0x00, 0x00, 0x00, 
  0x00, 0x00, 0x00, 0x00, 0x00, 0x00, 0x00, 0x00, 0x00, 0x00, 0x00, 0x00, 
  0x00, 0x00, 0x00, 0x00, 0x00, 0x00, 0x00, 0x00, 0x00, 0x00, 0x00, 0x00, 
  0x00, 0x00, 0x00, 0x00, 0x00, 0x00, 0x00, 0x00, 0x00, 0x00, 0x00, 0x00, 
  0x00, 0x00, 0x00, 0x00, 0xc6, 0xa8, 0xff, 0xff, 0x04, 0x00, 0x00, 0x00, 
  0x00, 0x04, 0x00, 0x00, 0x32, 0xc0, 0x1b, 0x03, 0x3b, 0xbf, 0xeb, 0xce, 
  0xca, 0x10, 0xf1, 0xc5, 0x08, 0x1d, 0x34, 0x00, 0x3b, 0x01, 0xe6, 0xd4, 
  0x81, 0xbd, 0xeb, 0xdd, 0xe7, 0xf9, 0xfa, 0xea, 0x42, 0x29, 0x9e, 0x12, 
  0x50, 0xfe, 0xa7, 0x21, 0x07, 0x1a, 0x64, 0x30, 0xe1, 0xdd, 0xfb, 0x81, 
  0x53, 0xdc, 0x09, 0x11, 0x00, 0x2a, 0x75, 0x29, 0xf7, 0x44, 0xe6, 0xa2, 
  0x2a, 0xdc, 0x48, 0xc4, 0xd6, 0x18, 0x31, 0x0a, 0xf7, 0xdb, 0xca, 0xd7, 
  0x34, 0x45, 0xaf, 0x33, 0xb0, 0xde, 0x3e, 0x0f, 0xd1, 0xd0, 0xc6, 0xea, 
  0xe5, 0xb7, 0x15, 0xff, 0xc7, 0x81, 0xdc, 0xdf, 0xe7, 0xdc, 0xcf, 0xe8, 
  0x5a, 0x13, 0xdc, 0xde, 0x1b, 0xe8, 0x2f, 0xdd, 0xee, 0x12, 0x3f, 0x47, 
  0xc9, 0xfa, 0x37, 0x7f, 0xaf, 0xd2, 0x48, 0xfb, 0xef, 0x1c, 0x0a, 0xfd, 
  0xee, 0xb1, 0xea, 0xd3, 0xff, 0x68, 0x43, 0xe1, 0x22, 0x06, 0xa2, 0x12, 
  0x14, 0x03, 0xe5, 0xac, 0xbd, 0xba, 0xa2, 0x48, 0xf4, 0xc9, 0xd7, 0x1f, 
  0x7b, 0xb2, 0x3e, 0xf6, 0x1e, 0x37, 0x7f, 0x32, 0xdd, 0xea, 0xd8, 0xd7, 
  0x1c, 0x6c, 0x03, 0xdc, 0xdb, 0x3e, 0x0c, 0x13, 0x1d, 0xae, 0xf7, 0xfe, 
  0xd5, 0x47, 0x3b, 0x2c, 0x18, 0xce, 0xf6, 0xe7, 0xee, 0xd8, 0x09, 0x07, 
  0x08, 0x48, 0x28, 0xe8, 0x15, 0x20, 0xa3, 0x25, 0x18, 0xf4, 0xe6, 0x7f, 
  0x09, 0xdc, 0xdb, 0x22, 0x17, 0x43, 0x1e, 0xfd, 0x02, 0xfa, 0x81, 0x0f, 
  0x4d, 0xc9, 0xf9, 0xf9, 0x11, 0xe5, 0xd8, 0xfb, 0xf3, 0x35, 0xf2, 0x0f, 
  0x01, 0xbe, 0x08, 0x46, 0xee, 0x17, 0x25, 0x1a, 0xf8, 0xda, 0xe2, 0xd8, 
  0x21, 0x17, 0x52, 0x2e, 0xac, 0xf1, 0x74, 0x52, 0x8a, 0x4a, 0x84, 0xf1, 
  0x56, 0xbb, 0xca, 0x89, 0x23, 0x58, 0x26, 0x59, 0x8a, 0x67, 0x95, 0xfe, 
  0xb8, 0x1d, 0xba, 0x82, 0x81, 0x3a, 0x52, 0x1b, 0x48, 0xff, 0xce, 0x17, 
  0x37, 0x06, 0xd4, 0x33, 0x27, 0xf6, 0x56, 0xb2, 0xc7, 0xde, 0xe6, 0xec, 
  0xf5, 0xfd, 0x1c, 0xf6, 0xd7, 0x81, 0x21, 0x52, 0xeb, 0xb7, 0x1e, 0xf5, 
  0x51, 0x1f, 0x00, 0xfc, 0x31, 0xeb, 0x20, 0x0c, 0x0d, 0x07, 0xea, 0xe7, 
  0xe0, 0xef, 0xea, 0xc0, 0x2a, 0xfd, 0xef, 0xe5, 0x1a, 0x22, 0x0e, 0xa9, 
  0xdf, 0x00, 0xeb, 0xf0, 0x19, 0x03, 0xef, 0x81, 0x2b, 0x45, 0x1b, 0xde, 
  0x3f, 0xe7, 0xe5, 0x1d, 0x3f, 0x2a, 0xed, 0xe2, 0x05, 0xf2, 0x7f, 0x11, 
  0x19, 0xc1, 0xe1, 0xe7, 0x13, 0x10, 0xd5, 0xb6, 0xef, 0xd3, 0xeb, 0x20, 
  0xf1, 0xf0, 0x35, 0x0c, 0x01, 0x62, 0x54, 0x0c, 0x4f, 0xc2, 0xf3, 0x14, 
  0x74, 0xcc, 0x15, 0xc9, 0x02, 0x47, 0xd0, 0x0d, 0xe3, 0x4a, 0x7f, 0xd9, 
  0xf7, 0xd9, 0x42, 0x23, 0xe5, 0x32, 0x67, 0x11, 0x21, 0x3c, 0x25, 0x17, 
  0x3e, 0x37, 0xd9, 0xe1, 0xee, 0x5a, 0x08, 0xbf, 0xe8, 0xd8, 0x48, 0xc3, 
  0xd4, 0x16, 0xc2, 0x48, 0x39, 0xcb, 0xf3, 0x35, 0x4c, 0xd5, 0x3e, 0xf0, 
  0x26, 0xe1, 0x9a, 0xcf, 0xf9, 0xfd, 0x81, 0xf1, 0xf4, 0x40, 0x1a, 0xde, 
  0x7c, 0x54, 0xfb, 0x40, 0x17, 0xe3, 0x6d, 0xcf, 0x12, 0xe2, 0x33, 0x83, 
  0x3f, 0x53, 0x11, 0x17, 0xdc, 0x1e, 0xdf, 0x84, 0xa7, 0xab, 0xd1, 0x3a, 
  0x52, 0x14, 0x9b, 0xb6, 0xc9, 0x3c, 0xe5, 0x81, 0xd1, 0xec, 0xa8, 0xe0, 
  0xf9, 0xb1, 0xfe, 0x28, 0xfd, 0x2c, 0xe3, 0xdd, 0x24, 0xc7, 0x19, 0xf2, 
  0x0f, 0x7f, 0x3b, 0x2a, 0xd9, 0x03, 0xf5, 0x11, 0x11, 0xdb, 0x44, 0xef, 
  0xae, 0xf2, 0xab, 0x0d, 0x32, 0x75, 0x44, 0x6d, 0x0f, 0xe3, 0x65, 0xe9, 
  0xed, 0x04, 0x33, 0x9e, 0x25, 0x1a, 0xc9, 0x4a, 0x12, 0x26, 0xe4, 0xb9, 
  0xa3, 0x2f, 0xf2, 0x3b, 0x7f, 0xa4, 0x0e, 0xcd, 0x86, 0x5d, 0xf9, 0x16, 
  0xb4, 0x48, 0xe5, 0xed, 0x48, 0x08, 0xd6, 0x00, 0x02, 0xbb, 0x39, 0xf1, 
  0x09, 0xdf, 0xe1, 0x40, 0xda, 0x75, 0x10, 0xc5, 0xaa, 0x0f, 0xa7, 0xe6, 
  0x2d, 0x1e, 0xc4, 0xcc, 0x81, 0x02, 0x17, 0x39, 0x2a, 0x7d, 0x37, 0x69, 
  0x33, 0x6c, 0x08, 0xa3, 0xf0, 0xef, 0x3a, 0xf6, 0xa8, 0x0a, 0xeb, 0xe2, 
  0xfd, 0xfc, 0xe4, 0xe4, 0xb5, 0xfd, 0xe4, 0x16, 0x71, 0xd5, 0x81, 0x3e, 
  0xfd, 0x8a, 0xbc, 0xb9, 0xf7, 0x2c, 0x4a, 0xde, 0x07, 0x08, 0x2f, 0xc6, 
  0x7f, 0x13, 0xd1, 0xbf, 0x30, 0x13, 0x8e, 0xf7, 0xcb, 0xc3, 0x04, 0xed, 
  0xc9, 0x6e, 0x1f, 0x06, 0xc8, 0xff, 0xf7, 0x98, 0x2d, 0xf4, 0xf0, 0x58, 
  0xdf, 0x7f, 0x41, 0xff, 0x14, 0xf5, 0xba, 0x24, 0x0c, 0xd1, 0x17, 0xed, 
  0xaf, 0x43, 0x3f, 0x8a, 0x57, 0x1c, 0x85, 0xef, 0x02, 0xfa, 0xcc, 0xfa, 
  0x19, 0x38, 0x18, 0xeb, 0x55, 0x19, 0x08, 0x2d, 0x11, 0xdd, 0x20, 0xf1, 
  0xef, 0xe7, 0x35, 0xfb, 0x50, 0x24, 0xf7, 0xd2, 0xf7, 0x03, 0x15, 0x03, 
  0x2f, 0x7f, 0x22, 0xdf, 0xda, 0xe2, 0xda, 0xe0, 0xcc, 0xe5, 0xea, 0x29, 
  0x20, 0x03, 0xe9, 0xe0, 0xea, 0xd4, 0xd9, 0xe4, 0xc3, 0xd1, 0xaf, 0x08, 
  0x28, 0x14, 0xe3, 0xe1, 0x20, 0x1c, 0x9a, 0x81, 0x0f, 0xd0, 0xd4, 0xdb, 
  0x15, 0xdd, 0xfa, 0xe1, 0x02, 0x24, 0x0f, 0xfc, 0xd3, 0x4c, 0xef, 0xa9, 
  0x32, 0x21, 0x1e, 0x7f, 0x45, 0x4b, 0xc1, 0xac, 0x44, 0xb9, 0x87, 0x0e, 
  0x85, 0x9c, 0x5e, 0xcd, 0x0e, 0xe5, 0xe8, 0x25, 0x53, 0xe7, 0xf6, 0xf8, 
  0xbb, 0x12, 0x34, 0x21, 0x64, 0xbd, 0x47, 0xc6, 0xe1, 0x16, 0xd8, 0xdb, 
  0x02, 0x09, 0xf8, 0xe3, 0x22, 0xf1, 0x1f, 0x59, 0xe1, 0x08, 0xe9, 0x34, 
  0xd6, 0x29, 0xed, 0x4e, 0xd6, 0x1e, 0x15, 0xfb, 0xb9, 0x27, 0xe2, 0x02, 
  0xd1, 0x7f, 0x8b, 0x00, 0x7f, 0xce, 0x44, 0x61, 0x4d, 0x4a, 0xad, 0x45, 
  0x1f, 0x41, 0xd3, 0xbf, 0xaf, 0xf6, 0xeb, 0xc3, 0x1c, 0x0e, 0xef, 0xdf, 
  0xa3, 0xd6, 0x3d, 0x1c, 0x7c, 0xb8, 0xf9, 0x2e, 0x26, 0x53, 0x3b, 0x31, 
  0xd3, 0x73, 0x09, 0xdf, 0x49, 0xb8, 0xf8, 0xdf, 0x14, 0x03, 0xff, 0xe0, 
  0x9e, 0x08, 0x45, 0xca, 0xca, 0xf1, 0x05, 0x81, 0xc2, 0x08, 0x2f, 0x1d, 
  0x0b, 0xd6, 0xc9, 0x3f, 0xd3, 0x08, 0x59, 0x0d, 0xe4, 0xb0, 0x81, 0x18, 
  0xf2, 0x48, 0xcf, 0x5b, 0x1a, 0xc4, 0x5b, 0x0e, 0xcc, 0xc5, 0x3c, 0x8d, 
  0x26, 0x56, 0x27, 0xf1, 0x23, 0xb9, 0xf0, 0x18, 0xec, 0x4d, 0x34, 0x96, 
  0x57, 0xe4, 0x4d, 0x11, 0xb6, 0x09, 0xe4, 0x35, 0x2c, 0x0c, 0x06, 0xeb, 
  0x35, 0x3b, 0xf1, 0xd5, 0x00, 0xe9, 0x81, 0x8a, 0xf3, 0x13, 0x2c, 0xce, 
  0xb5, 0x51, 0x43, 0xae, 0x93, 0xf3, 0xd8, 0x9f, 0x39, 0xe7, 0x0a, 0xd1, 
  0x64, 0xd1, 0x37, 0x27, 0x2a, 0x46, 0x07, 0xe1, 0xe8, 0x42, 0xec, 0xe6, 
  0x17, 0x7a, 0x54, 0x08, 0x50, 0x14, 0x09, 0xa5, 0xd5, 0xce, 0xb7, 0x7f, 
  0xf1, 0xe2, 0xf0, 0x6e, 0x13, 0x16, 0x33, 0xfd, 0x0e, 0x98, 0x1d, 0x0f, 
  0x3a, 0x3e, 0x81, 0x6e, 0xda, 0x04, 0x04, 0x0e, 0xe7, 0x3b, 0xdf, 0x1c, 
  0x4d, 0x11, 0x0e, 0xd8, 0x21, 0xd8, 0x0d, 0xef, 0xf1, 0xe6, 0x25, 0x06, 
  0x28, 0xd5, 0x14, 0x37, 0xe7, 0x2f, 0x59, 0xfd, 0xce, 0x4f, 0x2e, 0xe2, 
  0x42, 0x27, 0x59, 0x46, 0x07, 0x39, 0xc6, 0xeb, 0x13, 0x81, 0xdb, 0xd9, 
  0xea, 0xff, 0xf1, 0xd7, 0x35, 0x45, 0x28, 0x18, 0x94, 0xc3, 0x0b, 0xe8, 
  0x01, 0xf0, 0x19, 0xdd, 0xf0, 0xc3, 0xe2, 0xcc, 0xb3, 0x13, 0x00, 0xd2, 
  0x37, 0x48, 0xf7, 0xd5, 0xbb, 0xc9, 0x08, 0x0e, 0xa2, 0xa6, 0x04, 0x49, 
  0x4b, 0xac, 0x2d, 0x66, 0x81, 0x44, 0x0b, 0xe3, 0xd2, 0xac, 0xff, 0xff, 
  0x04, 0x00, 0x00, 0x00, 0x80, 0x00, 0x00, 0x00, 0x60, 0xff, 0xff, 0xff, 
  0x8e, 0xfd, 0xff, 0xff, 0xfc, 0xe4, 0xff, 0xff, 0xd4, 0x09, 0x00, 0x00, 
  0xc8, 0xfa, 0xff, 0xff, 0x00, 0x01, 0x00, 0x00, 0x46, 0xfa, 0xff, 0xff, 
  0xf4, 0x0b, 0x00, 0x00, 0x4c, 0xe7, 0xff, 0xff, 0xa3, 0xfb, 0xff, 0xff, 
  0xfd, 0xed, 0xff, 0xff, 0xba, 0x05, 0x00, 0x00, 0x1c, 0x08, 0x00, 0x00, 
  0x19, 0xf6, 0xff, 0xff, 0x18, 0x09, 0x00, 0x00, 0x90, 0xfc, 0xff, 0xff, 
  0xfb, 0xf8, 0xff, 0xff, 0x0f, 0xfc, 0xff, 0xff, 0x79, 0x05, 0x00, 0x00, 
  0x3e, 0x07, 0x00, 0x00, 0x45, 0x09, 0x00, 0x00, 0x23, 0xf7, 0xff, 0xff, 
  0xf8, 0x0e, 0x00, 0x00, 0xc4, 0x01, 0x00, 0x00, 0x1e, 0xe9, 0xff, 0xff, 
  0x72, 0x04, 0x00, 0x00, 0xdf, 0xf3, 0xff, 0xff, 0x1b, 0x02, 0x00, 0x00, 
  0x7a, 0xf5, 0xff, 0xff, 0x17, 0xef, 0xff, 0xff, 0x9d, 0xfa, 0xff, 0xff, 
  0xe2, 0xef, 0xff, 0xff, 0x5e, 0xad, 0xff, 0xff, 0x04, 0x00, 0x00, 0x00, 
  0x00, 0x01, 0x00, 0x00, 0x6c, 0x27, 0xb6, 0xde, 0xfa, 0xe1, 0x3f, 0xc0, 
  0x4a, 0x4c, 0x0d, 0xf7, 0x15, 0x64, 0x4d, 0xe5, 0x7f, 0x59, 0x0a, 0x54, 
  0x6d, 0x10, 0xf4, 0xb8, 0xf9, 0x63, 0x29, 0xf7, 0x65, 0x30, 0xa1, 0x58, 
  0x35, 0xc7, 0x1e, 0x04, 0xc1, 0xc3, 0x2a, 0xcf, 0xfd, 0xca, 0x15, 0x19, 
  0x10, 0xe6, 0xd4, 0xe9, 0xe7, 0xe8, 0x00, 0xf4, 0xd8, 0xf3, 0xb8, 0x7f, 
  0xb1, 0xd2, 0xb1, 0x38, 0xb6, 0xf1, 0x46, 0xdd, 0x45, 0x9e, 0x53, 0xf3, 
  0x41, 0xb8, 0x73, 0xb9, 0xfc, 0x04, 0xe5, 0xe0, 0xc0, 0xf4, 0x14, 0x9f, 
  0x3d, 0x05, 0xaa, 0x46, 0xf1, 0x17, 0x35, 0xc0, 0x1f, 0xc8, 0x7f, 0xdf, 
  0xcc, 0x37, 0xfb, 0xc6, 0x63, 0xed, 0x05, 0xf3, 0x01, 0xd9, 0x01, 0x34, 
  0x3c, 0x20, 0x43, 0x85, 0x07, 0xd7, 0xdf, 0x4c, 0x0b, 0x1a, 0x7f, 0xdd, 
  0x2e, 0x08, 0x94, 0xdc, 0x28, 0xd6, 0xdd, 0x73, 0x1d, 0x39, 0x5f, 0x14, 
  0x18, 0xc0, 0xb8, 0xd1, 0xa8, 0x47, 0x35, 0x1a, 0xd8, 0xc3, 0xc1, 0xf1, 
  0xb0, 0x0c, 0x95, 0xfd, 0xce, 0xdb, 0x06, 0x62, 0xfc, 0x07, 0x7f, 0xba, 
  0xf3, 0x16, 0x34, 0x07, 0x2b, 0x51, 0x57, 0xe7, 0xc8, 0x37, 0xd0, 0xea, 
  0xf5, 0xf1, 0xee, 0x7f, 0x1a, 0x7b, 0x11, 0xe9, 0xe2, 0x30, 0xe7, 0x15, 
  0x02, 0x39, 0xa3, 0xeb, 0xfb, 0xbf, 0x36, 0xbf, 0x25, 0xda, 0x51, 0xdc, 
  0x15, 0xe3, 0xec, 0x38, 0x81, 0x0b, 0x9b, 0xc0, 0x31, 0xdd, 0xf1, 0x5e, 
  0xf4, 0xf1, 0x6e, 0x8c, 0xb4, 0xda, 0xf9, 0xcc, 0x34, 0xf8, 0x24, 0x2a, 
  0x9b, 0xd4, 0x33, 0x2e, 0x5b, 0x5a, 0x54, 0xa2, 0x23, 0x2d, 0x6f, 0xf3, 
  0x4b, 0xdb, 0xd9, 0x0b, 0x6d, 0xd5, 0xfd, 0x30, 0xc7, 0x24, 0xc2, 0xdc, 
  0x08, 0xbf, 0x7f, 0x98, 0x47, 0xa2, 0xb0, 0xf6, 0x7e, 0x7b, 0xf7, 0xf6, 
  0x0e, 0x17, 0xc3, 0xf2, 0xc2, 0x34, 0xab, 0x25, 0xe8, 0xdb, 0xfe, 0xff, 
  0x6e, 0xae, 0xff, 0xff, 0x04, 0x00, 0x00, 0x00, 0x20, 0x00, 0x00, 0x00, 
  0x00, 0x00, 0x00, 0x00, 0x00, 0x00, 0x00, 0x00, 0x00, 0x00, 0x00, 0x00, 
  0x00, 0x00, 0x00, 0x00, 0x00, 0x00, 0x00, 0x00, 0x00, 0x00, 0x00, 0x00, 
  0x00, 0x00, 0x00, 0x00, 0x00, 0x00, 0x00, 0x00, 0x9a, 0xae, 0xff, 0xff, 
  0x04, 0x00, 0x00, 0x00, 0x00, 0x01, 0x00, 0x00, 0xea, 0x23, 0x94, 0x81, 
  0x3e, 0x31, 0x17, 0x9a, 0xb9, 0x7f, 0x5b, 0x99, 0x0d, 0xc7, 0x77, 0x5b, 
  0x3a, 0x81, 0xd1, 0xfc, 0x1c, 0x23, 0x61, 0xde, 0xca, 0xb7, 0x7f, 0x29, 
  0xce, 0x39, 0x05, 0x5d, 0xf0, 0xdf, 0xff, 0x81, 0x3b, 0xd5, 0x19, 0xcc, 
  0xd6, 0x41, 0x7f, 0x83, 0xe2, 0xc9, 0x0e, 0xdf, 0xc6, 0x42, 0x7f, 0x2d, 
  0xb5, 0xc7, 0x31, 0x72, 0x81, 0x02, 0x6c, 0x90, 0xe2, 0xcf, 0xd0, 0x14, 
  0x18, 0x43, 0x81, 0xf0, 0x15, 0x0e, 0xda, 0x26, 0x0c, 0x75, 0x81, 0x05, 
  0x04, 0x1b, 0xea, 0x23, 0x2e, 0xab, 0x81, 0x17, 0x23, 0xda, 0x14, 0x08, 
  0xad, 0x2c, 0x7f, 0x61, 0xaa, 0xce, 0xe1, 0x5b, 0xd5, 0x7a, 0x79, 0xe2, 
  0x55, 0xf9, 0x22, 0x81, 0xf8, 0x3e, 0x21, 0x4d, 0x20, 0x94, 0xda, 0x7f, 
  0xdf, 0x4a, 0x61, 0x90, 0x36, 0x81, 0x33, 0xa5, 0x0c, 0x7f, 0x01, 0x4e, 
  0x33, 0x8c, 0xf2, 0x75, 0xda, 0xe6, 0x7b, 0x3d, 0x8c, 0x27, 0x81, 0x73, 
  0xa3, 0x54, 0x43, 0xfe, 0xb0, 0xb9, 0x81, 0x6c, 0xf9, 0x5d, 0x7f, 0x14, 
  0xcb, 0x56, 0x21, 0xd8, 0xfc, 0x7f, 0x34, 0xe5, 0x97, 0x3e, 0xcc, 0x27, 
  0xad, 0x7f, 0x48, 0xee, 0xfe, 0x97, 0x0b, 0xab, 0xe7, 0x2e, 0x0d, 0x7f, 
  0x0e, 0xfb, 0xba, 0xa6, 0x69, 0xfc, 0xf2, 0x73, 0x81, 0x0e, 0x02, 0x12, 
  0x38, 0xfc, 0x7f, 0xe8, 0xf5, 0x5a, 0xcf, 0xef, 0xc1, 0x7f, 0xdb, 0x1e, 
  0xab, 0xf2, 0xa5, 0x07, 0x6e, 0x14, 0x7f, 0xe6, 0x9b, 0xfe, 0x2c, 0x21, 
  0x68, 0x16, 0x43, 0x1e, 0x7f, 0xd2, 0x17, 0x62, 0xfd, 0xbb, 0x7f, 0x3a, 
  0xe1, 0x03, 0x23, 0xd9, 0xb1, 0x6d, 0xfe, 0xe8, 0xc3, 0xf1, 0x81, 0x4c, 
  0xfb, 0xbc, 0x5d, 0xfd, 0x2e, 0xe8, 0xf6, 0x7f, 0xd3, 0xd4, 0x26, 0x00, 
  0xaf, 0xa7, 0xb1, 0x7f, 0xfb, 0x7f, 0x0d, 0x6a, 0x3e, 0xd8, 0xd3, 0xd1, 
  0xa6, 0xaf, 0xff, 0xff, 0x04, 0x00, 0x00, 0x00, 0x60, 0x00, 0x00, 0x00, 
  0x11, 0x7f, 0x62, 0xaa, 0x7f, 0x7f, 0x7f, 0xfb, 0x39, 0x04, 0x22, 0xfc, 
  0x7f, 0x81, 0xc5, 0xab, 0x95, 0x90, 0x7f, 0x38, 0x7f, 0x18, 0x25, 0xb3, 
  0x32, 0x7f, 0x40, 0x7f, 0xa8, 0x81, 0x7f, 0x85, 0xbf, 0x0b, 0x81, 0x81, 
  0xdf, 0x2c, 0x79, 0xa3, 0x9e, 0xfd, 0x7f, 0xe0, 0xe7, 0xef, 0xb2, 0x03, 
  0x96, 0x7f, 0x53, 0x7f, 0x85, 0x50, 0x5e, 0xe2, 0x7f, 0x2c, 0x20, 0x45, 
  0x81, 0xb7, 0x55, 0x7f, 0x81, 0xa7, 0xc6, 0xd0, 0xf1, 0xdb, 0x11, 0x81, 
  0x81, 0x7f, 0xcb, 0x81, 0xfc, 0x1b, 0x81, 0x7f, 0x81, 0x21, 0x6e, 0x7e, 
  0x0a, 0x7f, 0x7f, 0x81, 0x49, 0x62, 0x7f, 0x04, 0xcc, 0x85, 0x30, 0x57, 
  0x12, 0xb0, 0xff, 0xff, 0x04, 0x00, 0x00, 0x00, 0x00, 0x04, 0x00, 0x00, 
  0x19, 0x01, 0xda, 0x17, 0x09, 0xe1, 0x98, 0xe0, 0xe7, 0x01, 0xe5, 0x41, 
  0xe1, 0x51, 0x81, 0xab, 0x30, 0xe8, 0xe3, 0x01, 0xb9, 0x63, 0xbc, 0xce, 
  0xf4, 0x19, 0x3c, 0xc4, 0x71, 0x74, 0xb7, 0xb8, 0x07, 0x0e, 0xfa, 0x08, 
  0x06, 0x05, 0x73, 0x40, 0xbc, 0xb4, 0x0d, 0xd8, 0xbd, 0xe7, 0xf4, 0xf9, 
  0x7f, 0x2d, 0xd1, 0x08, 0xfe, 0xdc, 0x53, 0xdf, 0x16, 0xc1, 0x1c, 0xbc, 
  0xe5, 0xda, 0x16, 0x11, 0xff, 0xec, 0xf6, 0x7f, 0xc0, 0xff, 0xfd, 0xea, 
  0x27, 0xf2, 0xe3, 0x5b, 0x05, 0x2a, 0x0b, 0x0e, 0xc3, 0x21, 0x01, 0xec, 
  0x0f, 0x26, 0x03, 0xf9, 0xd3, 0xf7, 0xcf, 0x27, 0x2d, 0x2f, 0xe1, 0x06, 
  0xe3, 0xc6, 0x28, 0x10, 0xda, 0xcb, 0xfb, 0x81, 0xda, 0x34, 0x88, 0xe8, 
  0x02, 0xfe, 0xc1, 0x35, 0x11, 0xe9, 0x34, 0xf6, 0xdd, 0x08, 0xfa, 0xf1, 
  0x5c, 0x0a, 0xda, 0xd5, 0xfa, 0x35, 0xe9, 0xf7, 0xb5, 0x7f, 0x13, 0xf2, 
  0xc5, 0x55, 0x16, 0xf3, 0x4d, 0x26, 0xdc, 0x04, 0x65, 0xe3, 0x44, 0xc0, 
  0xed, 0xa3, 0xb6, 0xe3, 0x6f, 0x1f, 0x1a, 0xe3, 0x10, 0xe3, 0xe8, 0x3a, 
  0x25, 0x50, 0xe3, 0xec, 0x23, 0xd6, 0x0c, 0xe0, 0x83, 0xbc, 0x22, 0x2f, 
  0xdd, 0x2d, 0x53, 0x0f, 0x31, 0xce, 0x1c, 0x03, 0x01, 0x7f, 0xe3, 0x2c, 
  0x3d, 0x15, 0x18, 0xe1, 0x04, 0xeb, 0x17, 0xf6, 0xd1, 0x44, 0xda, 0xf0, 
  0x9b, 0xf1, 0x41, 0x3f, 0xf9, 0x1b, 0x05, 0x8f, 0xc9, 0x1c, 0x05, 0x23, 
  0xc1, 0x2c, 0x74, 0x19, 0x56, 0x2d, 0xa8, 0xef, 0x19, 0x27, 0x94, 0x2d, 
  0xfa, 0x52, 0xb2, 0x53, 0x46, 0x7f, 0x4e, 0xe3, 0x38, 0xbc, 0xe7, 0xec, 
  0xe7, 0xa6, 0x81, 0x85, 0x46, 0x46, 0xa0, 0xf2, 0xc3, 0xd9, 0xe5, 0x53, 
  0xe1, 0xaa, 0x1b, 0x9c, 0x96, 0x72, 0xfc, 0xc5, 0x4f, 0x0c, 0x01, 0x56, 
  0xbf, 0x19, 0x49, 0x16, 0x2d, 0x1f, 0x25, 0x2c, 0xd0, 0xf7, 0xa8, 0x45, 
  0x21, 0x17, 0xb8, 0x0a, 0x48, 0x18, 0xfc, 0x19, 0x2b, 0xf4, 0xec, 0x29, 
  0x0a, 0xd6, 0x24, 0x37, 0xae, 0xbd, 0xf0, 0xb9, 0x53, 0x06, 0x7f, 0xd4, 
  0x13, 0x08, 0xed, 0xf1, 0x10, 0x1f, 0x08, 0xdf, 0xfd, 0xf0, 0xac, 0xb7, 
  0xe5, 0xe5, 0xca, 0x9a, 0xe7, 0xa7, 0xca, 0x81, 0x26, 0xf9, 0xd9, 0xc9, 
  0x5a, 0xb8, 0x65, 0xf3, 0x62, 0x21, 0xcb, 0xd8, 0xe2, 0xee, 0x02, 0xb7, 
  0x21, 0xe3, 0x25, 0x31, 0x21, 0x35, 0xd7, 0x3a, 0x04, 0x49, 0x7f, 0xda, 
  0x1f, 0xd0, 0x45, 0x19, 0x05, 0xc3, 0x0a, 0x46, 0xfb, 0x3b, 0xfe, 0xe4, 
  0x22, 0xcf, 0x53, 0xdf, 0x31, 0xa2, 0xd7, 0xed, 0x10, 0xae, 0x81, 0xb2, 
  0xc5, 0xc7, 0x68, 0x05, 0xba, 0x40, 0xa8, 0xec, 0xff, 0x15, 0xc3, 0x20, 
  0xdd, 0xea, 0x59, 0x6d, 0xcb, 0xda, 0x91, 0x09, 0x29, 0xf7, 0xc8, 0x24, 
  0x30, 0x1f, 0xd6, 0x20, 0xee, 0x25, 0xc4, 0x51, 0x02, 0x1e, 0x1b, 0xfb, 
  0xc0, 0xda, 0x4b, 0x92, 0x7f, 0x0d, 0x44, 0xe2, 0xfe, 0xf3, 0x59, 0x26, 
  0x13, 0xe6, 0xcc, 0xd5, 0xef, 0xd5, 0x21, 0x25, 0x0b, 0xe5, 0xde, 0x12, 
  0xb3, 0x6b, 0xeb, 0xc6, 0xdf, 0xf6, 0x66, 0x02, 0xfe, 0x62, 0xd5, 0xf3, 
  0xf6, 0xa5, 0xf7, 0x08, 0x81, 0x47, 0xb0, 0xab, 0xb7, 0xa7, 0x23, 0xbf, 
  0xe5, 0x02, 0xef, 0x0d, 0xfe, 0x39, 0xbf, 0xcd, 0x15, 0xf3, 0xce, 0x43, 
  0xce, 0x3b, 0x28, 0x5c, 0xe2, 0xd2, 0x3e, 0x9d, 0x72, 0x34, 0xaa, 0xee, 
  0xe0, 0x81, 0xcd, 0x02, 0xda, 0x98, 0x17, 0xfc, 0x32, 0x39, 0xe9, 0xec, 
  0xea, 0x1e, 0x0a, 0x1a, 0x19, 0x16, 0xe1, 0xf3, 0xdd, 0xfc, 0x35, 0xf7, 
  0x81, 0xcc, 0x21, 0x03, 0x40, 0x39, 0x12, 0xd6, 0x7b, 0x2e, 0x1a, 0xe6, 
  0x0c, 0xe5, 0x1f, 0xf7, 0xe1, 0x28, 0x1e, 0x40, 0x7f, 0x31, 0x61, 0x3b, 
  0xd8, 0x39, 0x36, 0x1c, 0x18, 0x14, 0xdc, 0x33, 0x14, 0xdb, 0xfc, 0xdd, 
  0xfb, 0xbf, 0xea, 0xea, 0xf5, 0x24, 0xdd, 0xee, 0x07, 0x2a, 0x12, 0xf4, 
  0x24, 0xe4, 0x9e, 0x8f, 0x91, 0x2c, 0x0f, 0x40, 0x32, 0x91, 0xfd, 0xa1, 
  0xb0, 0x83, 0x90, 0xd0, 0x9e, 0xbc, 0x25, 0xb9, 0x1b, 0x9f, 0xef, 0x10, 
  0x2b, 0x81, 0x18, 0xcd, 0xec, 0x7d, 0xa7, 0xa2, 0xf5, 0x64, 0xdb, 0xb6, 
  0x15, 0x4c, 0x25, 0x33, 0x47, 0xed, 0x07, 0x04, 0x3e, 0xeb, 0x27, 0x3a, 
  0xc7, 0xdf, 0xe9, 0x0e, 0xe3, 0xce, 0x11, 0xf0, 0xf6, 0xf6, 0xae, 0x18, 
  0x26, 0x19, 0xfb, 0xc0, 0xed, 0xd5, 0x00, 0x81, 0xf4, 0xfe, 0xf7, 0xe3, 
  0x4a, 0x0b, 0x0f, 0xeb, 0x13, 0xe6, 0x43, 0x0f, 0x34, 0x44, 0xcf, 0xf5, 
  0x3b, 0xe6, 0xf3, 0xd9, 0x7f, 0xc7, 0xf1, 0x18, 0x2c, 0x40, 0xe4, 0xdd, 
  0x33, 0xec, 0x56, 0x32, 0xad, 0xfb, 0x81, 0xe4, 0x22, 0x06, 0xe5, 0xe7, 
  0xf4, 0xfc, 0xf0, 0xb8, 0xf1, 0x11, 0x0e, 0xe3, 0x41, 0x06, 0x1d, 0x1a, 
  0x15, 0xfa, 0x28, 0xee, 0x5f, 0x20, 0x5a, 0xfc, 0xda, 0xc5, 0x23, 0xfc, 
  0x1c, 0xf6, 0x81, 0xd9, 0x18, 0x19, 0x5c, 0x04, 0xcf, 0x11, 0x61, 0xd7, 
  0x86, 0x08, 0xcf, 0xf9, 0xc3, 0x05, 0x25, 0x7b, 0xea, 0x5e, 0x59, 0xff, 
  0xf3, 0x3a, 0xf7, 0xbf, 0x62, 0xc9, 0xd3, 0xf6, 0xce, 0x4b, 0x0c, 0x00, 
  0xef, 0x25, 0x03, 0x94, 0xbf, 0x0c, 0x2c, 0xef, 0x41, 0x81, 0x22, 0xee, 
  0x29, 0x9e, 0x6d, 0x1b, 0x39, 0x11, 0x01, 0x0b, 0x5c, 0x17, 0x1f, 0x16, 
  0xcd, 0xf4, 0x13, 0x26, 0x14, 0x10, 0xf7, 0x08, 0xc6, 0x29, 0x52, 0x50, 
  0xba, 0x02, 0x3d, 0xfe, 0xe7, 0x39, 0x21, 0xcd, 0x24, 0x00, 0x00, 0x5b, 
  0x2f, 0xcf, 0x2a, 0x2a, 0x31, 0x81, 0x3b, 0x00, 0xb4, 0x03, 0x27, 0x15, 
  0x37, 0x0e, 0xfe, 0x13, 0xd7, 0xca, 0x1e, 0x25, 0x37, 0xe8, 0x1d, 0xff, 
  0xd5, 0x1e, 0x28, 0xdf, 0xfb, 0xf1, 0x81, 0xca, 0xf9, 0xea, 0x2c, 0x6b, 
  0x62, 0xb0, 0x0f, 0xcb, 0x13, 0xc1, 0xb0, 0x05, 0xd4, 0x33, 0x21, 0x1e, 
  0xf4, 0x61, 0xa9, 0xc3, 0x16, 0x01, 0x2c, 0x3c, 0x19, 0xcc, 0xe0, 0xfc, 
  0x1a, 0x7b, 0x48, 0x96, 0x3d, 0x09, 0xa0, 0xec, 0xbd, 0x0b, 0x74, 0x7f, 
  0xcf, 0xad, 0x04, 0x38, 0xc9, 0xe9, 0xad, 0xcc, 0x09, 0xf3, 0x81, 0xd8, 
  0xbb, 0x2c, 0xe5, 0xb7, 0xf1, 0x61, 0x47, 0x3c, 0x5c, 0x0a, 0x3b, 0x2c, 
  0xe5, 0xe5, 0x12, 0x12, 0x2b, 0x4c, 0x3b, 0xed, 0x1e, 0x00, 0x26, 0xe5, 
  0xd4, 0xf0, 0xb3, 0xa7, 0x16, 0xd9, 0x87, 0x1d, 0xec, 0x15, 0xb7, 0x00, 
  0x1b, 0x3f, 0xbd, 0x17, 0x68, 0x43, 0x1b, 0x43, 0x1b, 0xda, 0xd9, 0x0a, 
  0x81, 0xe4, 0x2a, 0xcb, 0x53, 0x21, 0xde, 0xc8, 0xba, 0x81, 0xcf, 0xec, 
  0xd0, 0xd1, 0x51, 0xd1, 0x37, 0xca, 0x46, 0x15, 0x94, 0x0a, 0x32, 0xbc, 
  0x12, 0x34, 0x02, 0xd4, 0xae, 0xd0, 0xcd, 0x64, 0x20, 0xd1, 0x24, 0xee, 
  0x41, 0x58, 0x0f, 0x20, 0x0d, 0x00, 0x44, 0x0c, 0xe9, 0xf1, 0xbe, 0x04, 
  0x13, 0xf4, 0xdc, 0x7f, 0x8a, 0xe5, 0xd0, 0x22, 0xff, 0x08, 0x1e, 0xe1, 
  0xf6, 0xb2, 0xd6, 0xd1, 0xaf, 0xab, 0xe6, 0x40, 0x4d, 0x3a, 0x18, 0xeb, 
  0xff, 0x13, 0x2d, 0x6a, 0xe4, 0x93, 0x2a, 0xef, 0x23, 0x45, 0x02, 0xf5, 
  0xf8, 0x5d, 0x38, 0xf4, 0xf1, 0x17, 0x7f, 0x34, 0xc7, 0x54, 0xdb, 0xff, 
  0x6e, 0x1b, 0xd2, 0x02, 0x63, 0xc2, 0xa0, 0xb5, 0x54, 0xed, 0x2f, 0x0c, 
  0x31, 0x10, 0x2b, 0x21, 0x08, 0xbe, 0xe1, 0xd6, 0xcf, 0xd7, 0x03, 0xc5, 
  0x81, 0xee, 0xaf, 0x0d, 0xf2, 0x0e, 0x24, 0x35, 0xc4, 0xbf, 0x20, 0x40, 
  0x20, 0xfc, 0xcd, 0xe0, 0x1e, 0xb4, 0xff, 0xff, 0x04, 0x00, 0x00, 0x00, 
  0x80, 0x00, 0x00, 0x00, 0x3d, 0x05, 0x00, 0x00, 0xe1, 0xff, 0xff, 0xff, 
  0xa4, 0x06, 0x00, 0x00, 0x96, 0xff, 0xff, 0xff, 0x51, 0x03, 0x00, 0x00, 
  0xd4, 0xff, 0xff, 0xff, 0xb8, 0x08, 0x00, 0x00, 0xf4, 0xfc, 0xff, 0xff, 
  0xc5, 0x05, 0x00, 0x00, 0x6a, 0x03, 0x00, 0x00, 0x68, 0x02, 0x00, 0x00, 
  0xe2, 0x04, 0x00, 0x00, 0xd9, 0x03, 0x00, 0x00, 0x6d, 0x01, 0x00, 0x00, 
  0xc0, 0x0c, 0x00, 0x00, 0x2f, 0x02, 0x00, 0x00, 0x20, 0x02, 0x00, 0x00, 
  0x50, 0x07, 0x00, 0x00, 0x2a, 0x02, 0x00, 0x00, 0x44, 0xfe, 0xff, 0xff, 
  0x0d, 0xfd, 0xff, 0xff, 0xf4, 0xf3, 0xff, 0xff, 0x57, 0xf4, 0xff, 0xff, 
  0x3f, 0xfc, 0xff, 0xff, 0xf9, 0x06, 0x00, 0x00, 0xf5, 0xfe, 0xff, 0xff, 
  0xad, 0x01, 0x00, 0x00, 0xea, 0x04, 0x00, 0x00, 0x91, 0x0a, 0x00, 0x00, 
  0xae, 0x0a, 0x00, 0x00, 0xa6, 0xfc, 0xff, 0xff, 0xec, 0xfd, 0xff, 0xff, 
  0xaa, 0xb4, 0xff, 0xff, 0x04, 0x00, 0x00, 0x00, 0x60, 0x00, 0x00, 0x00, 
  0xae, 0x72, 0x7f, 0xbc, 0x81, 0xc6, 0x7f, 0xe0, 0x7f, 0x7f, 0x7f, 0x87, 
  0xf2, 0xd8, 0xe1, 0xba, 0x2d, 0x7f, 0x70, 0x81, 0x61, 0x7f, 0x7f, 0x81, 
  0x7f, 0xe0, 0x7f, 0x7f, 0x7f, 0x6a, 0xe4, 0xd8, 0x81, 0x3c, 0x14, 0x3d, 
  0x8e, 0x81, 0x23, 0x7f, 0xfc, 0x48, 0xda, 0x7f, 0x94, 0xbe, 0x32, 0x81, 
  0x64, 0xd8, 0x7f, 0x9c, 0x81, 0x96, 0x28, 0xb0, 0x55, 0x89, 0xeb, 0xbb, 
  0x00, 0x07, 0x81, 0xdb, 0xf5, 0x7f, 0x34, 0x7f, 0x0c, 0x8d, 0xd8, 0x0e, 
  0x25, 0x1d, 0x74, 0x87, 0x81, 0x81, 0x81, 0x06, 0x7f, 0xad, 0x2f, 0x9b, 
  0x8b, 0x1c, 0x0f, 0xf9, 0x2e, 0x7f, 0x51, 0x34, 0xcb, 0x7f, 0x3a, 0x81, 
  0x16, 0xb5, 0xff, 0xff, 0x04, 0x00, 0x00, 0x00, 0x00, 0x04, 0x00, 0x00, 
  0xe5, 0x13, 0xcb, 0x23, 0x6d, 0x21, 0x15, 0xfa, 0xcb, 0x81, 0x08, 0xc9, 
  0x37, 0xc0, 0xd7, 0x41, 0x15, 0x9a, 0xfb, 0xa1, 0xaf, 0xc1, 0x42, 0x3d, 
  0x3d, 0x3e, 0x40, 0x15, 0x81, 0xb7, 0x0c, 0xfa, 0x81, 0xbe, 0x82, 0xd6, 
  0xb8, 0x2d, 0x14, 0x99, 0x5f, 0x29, 0x0f, 0x5e, 0x40, 0xf9, 0xf1, 0x8d, 
  0x2c, 0x58, 0x3a, 0xcf, 0x2f, 0xef, 0x11, 0x32, 0x22, 0xd0, 0x3f, 0x61, 
  0x1f, 0xc9, 0x5f, 0x42, 0xe6, 0xfd, 0xef, 0x00, 0xad, 0x10, 0xb5, 0xe9, 
  0xe5, 0x2f, 0x9e, 0x88, 0x1d, 0xfb, 0xe0, 0x12, 0x42, 0xe2, 0x43, 0x0c, 
  0xd8, 0x4a, 0x37, 0xd3, 0x2c, 0x10, 0xc2, 0x25, 0x81, 0xf1, 0x08, 0xc0, 
  0xed, 0xe8, 0x81, 0xf9, 0x1c, 0xf8, 0xd7, 0xe6, 0x3d, 0xd9, 0x3c, 0x03, 
  0x14, 0x2e, 0xb4, 0x3d, 0x10, 0xf1, 0xf3, 0x40, 0x16, 0x09, 0xda, 0xf2, 
  0x3f, 0xf1, 0x15, 0x24, 0x09, 0x06, 0xd9, 0x0b, 0xf4, 0xab, 0xe6, 0x50, 
  0x22, 0xc6, 0xcf, 0x15, 0x23, 0x7f, 0xe7, 0xd2, 0x52, 0xd5, 0x11, 0x14, 
  0x04, 0x1b, 0x05, 0xe9, 0x1b, 0xda, 0x2e, 0x1b, 0x20, 0xfc, 0xfd, 0x14, 
  0xa5, 0x32, 0x2b, 0x2a, 0xce, 0x7f, 0xdc, 0x16, 0x20, 0xf1, 0x9c, 0x2d, 
  0x10, 0x08, 0x17, 0xec, 0xea, 0xdc, 0x04, 0x24, 0x21, 0x2b, 0x5c, 0x3c, 
  0xad, 0x47, 0xfd, 0x94, 0x1d, 0xc5, 0xf4, 0x1f, 0x26, 0x1f, 0xb2, 0x21, 
  0x26, 0xb8, 0xdb, 0xcd, 0x36, 0xf8, 0xdf, 0x2f, 0xe0, 0xf7, 0xca, 0xf8, 
  0xc0, 0x0d, 0x5f, 0xe8, 0xdd, 0xd4, 0x3d, 0x4a, 0x16, 0xe4, 0x1d, 0xfa, 
  0x7f, 0xdc, 0x3d, 0xc8, 0x36, 0xbe, 0xf5, 0x1e, 0x34, 0xd2, 0xc4, 0xfb, 
  0xfa, 0xd7, 0x26, 0x24, 0x28, 0xfb, 0x32, 0xf7, 0x7f, 0x14, 0xf9, 0x02, 
  0x4f, 0xe5, 0x21, 0xe5, 0x03, 0x0f, 0xe2, 0x0d, 0xba, 0x2d, 0x12, 0x14, 
  0xd9, 0x0a, 0xcd, 0xb9, 0x22, 0x05, 0x13, 0xf9, 0xac, 0x81, 0x49, 0x50, 
  0x8e, 0xe5, 0xfc, 0x11, 0xf1, 0x8d, 0xfe, 0xf2, 0x3a, 0x4d, 0x5a, 0xc0, 
  0xb2, 0x20, 0x5e, 0x12, 0xba, 0xd3, 0x04, 0xe0, 0x1f, 0x0b, 0xc3, 0x17, 
  0x26, 0xeb, 0x50, 0x40, 0x07, 0x81, 0x64, 0xe1, 0x17, 0xf3, 0x24, 0x1d, 
  0xe8, 0xd3, 0xf1, 0xd2, 0x23, 0x75, 0x52, 0xb3, 0xa4, 0x31, 0x33, 0xd5, 
  0x59, 0xdd, 0x37, 0xc8, 0x5b, 0xd2, 0xdc, 0xf8, 0x1c, 0x3f, 0xdf, 0x32, 
  0x27, 0x25, 0x43, 0x03, 0xf3, 0x39, 0xd6, 0x81, 0x0e, 0x20, 0x1c, 0x3a, 
  0xfb, 0xea, 0xc7, 0xb9, 0xa0, 0xf4, 0xcf, 0xf0, 0x01, 0x02, 0x59, 0x3c, 
  0xc3, 0xd4, 0x3e, 0x2d, 0xd5, 0x88, 0x09, 0x09, 0xbf, 0xfd, 0x03, 0xd4, 
  0x55, 0xd8, 0xe7, 0xe1, 0xdf, 0xe2, 0xdd, 0x07, 0xcb, 0x17, 0xc8, 0xb3, 
  0x14, 0xf1, 0xf6, 0x0f, 0xb8, 0x34, 0xed, 0x42, 0xb7, 0x7f, 0x12, 0xfc, 
  0x57, 0x14, 0x1e, 0xf3, 0x81, 0x08, 0x13, 0x4b, 0xa6, 0x52, 0xc6, 0x2a, 
  0xd6, 0xd8, 0x14, 0x9d, 0x2a, 0xfd, 0x09, 0xde, 0x65, 0x49, 0x08, 0xe9, 
  0xa7, 0xef, 0xf3, 0xdb, 0xd3, 0x2b, 0xf1, 0xec, 0xf6, 0x49, 0x17, 0x36, 
  0xb6, 0xed, 0x9e, 0x1c, 0xfe, 0xed, 0xe6, 0x42, 0x81, 0xb5, 0xdc, 0xd3, 
  0x88, 0xe7, 0xf0, 0x23, 0xf6, 0xf1, 0x4c, 0xe3, 0x16, 0x20, 0xcc, 0xdc, 
  0x47, 0x1b, 0x1c, 0x5b, 0xf6, 0xe9, 0xfc, 0x7f, 0xe9, 0xdc, 0xfb, 0x4b, 
  0x1c, 0xef, 0xeb, 0x1a, 0xea, 0xb7, 0xe1, 0x22, 0xeb, 0x08, 0xd4, 0x11, 
  0xb1, 0xe3, 0x0f, 0xea, 0xba, 0x0f, 0xd9, 0xd2, 0xe1, 0xe1, 0x18, 0x30, 
  0xff, 0x81, 0xe3, 0x23, 0x87, 0x55, 0xe3, 0xcd, 0xf7, 0x4d, 0x8f, 0x09, 
  0x05, 0x99, 0xdd, 0x11, 0x2d, 0xf4, 0x16, 0x24, 0xed, 0x06, 0xd5, 0x01, 
  0x69, 0xe9, 0xff, 0xe2, 0x62, 0xd9, 0x2d, 0xa1, 0x49, 0x9f, 0x20, 0xb6, 
  0xe9, 0xcc, 0x58, 0x00, 0xcc, 0xf1, 0xac, 0x4d, 0x56, 0xf6, 0x59, 0x18, 
  0x7f, 0xb2, 0x11, 0x55, 0x2c, 0x11, 0x2e, 0xf4, 0x44, 0xf9, 0x31, 0xd7, 
  0x5a, 0xc5, 0x14, 0x2c, 0x81, 0xfb, 0xaa, 0x24, 0x0a, 0xbf, 0x1a, 0x69, 
  0x98, 0xff, 0xa4, 0x33, 0xfc, 0xf0, 0xef, 0x0d, 0xf1, 0xf1, 0x51, 0xd7, 
  0xea, 0xfa, 0x52, 0xd0, 0x14, 0x5f, 0xc7, 0xec, 0x7f, 0x14, 0x1d, 0x0a, 
  0x1c, 0x0f, 0x4d, 0x50, 0xed, 0x01, 0xed, 0xfe, 0x81, 0xbf, 0xb7, 0x24, 
  0x26, 0x1e, 0x9b, 0xf1, 0x0c, 0xed, 0xcb, 0x12, 0xec, 0xc8, 0x34, 0x0f, 
  0xe9, 0x37, 0x16, 0xe1, 0x1f, 0x11, 0xde, 0x09, 0xbf, 0x56, 0x27, 0xcf, 
  0xf6, 0x3c, 0x18, 0xe4, 0x50, 0x56, 0x94, 0x1e, 0xa5, 0x3d, 0xe5, 0xd2, 
  0x9f, 0xf5, 0xb2, 0x3c, 0xa3, 0x15, 0x62, 0xb1, 0x85, 0xe9, 0x32, 0xea, 
  0x81, 0xf3, 0xd1, 0x02, 0xc0, 0xd4, 0xc9, 0xfa, 0xf9, 0xb3, 0x07, 0xfa, 
  0x25, 0x16, 0xcc, 0xee, 0x01, 0xe1, 0xfa, 0x81, 0x0c, 0x40, 0x0e, 0xa4, 
  0xc5, 0xe1, 0x51, 0xea, 0xcb, 0xf2, 0xeb, 0xe4, 0x2d, 0x28, 0xda, 0x31, 
  0x08, 0xed, 0x26, 0xb7, 0x09, 0x2c, 0x45, 0x2b, 0x36, 0xd7, 0xc7, 0x0d, 
  0x06, 0xe3, 0x4c, 0xd0, 0x0f, 0x2b, 0x04, 0xf7, 0x7f, 0xf9, 0xc7, 0xfb, 
  0xfe, 0xf9, 0x27, 0xcf, 0x3f, 0x49, 0x45, 0x40, 0xfd, 0x33, 0x97, 0x0e, 
  0x58, 0x16, 0xe5, 0x2e, 0x2e, 0x12, 0xff, 0x1f, 0xd8, 0xad, 0x2b, 0x43, 
  0x0c, 0xcc, 0xfe, 0x10, 0xd1, 0xef, 0x81, 0xb8, 0x3f, 0xd4, 0xd0, 0x22, 
  0xeb, 0xab, 0x33, 0x15, 0xfc, 0x05, 0x78, 0xe2, 0xbc, 0xe7, 0xe3, 0x2f, 
  0x28, 0xb8, 0x3f, 0xd5, 0xd4, 0x10, 0x31, 0x0b, 0x20, 0x20, 0xb3, 0xca, 
  0xe6, 0xc2, 0xe4, 0xe8, 0x81, 0xc7, 0x3c, 0xd9, 0x4a, 0xf1, 0x08, 0xdb, 
  0xdc, 0xe6, 0xf5, 0x27, 0x05, 0xd8, 0x94, 0xe6, 0xfa, 0xc6, 0xe4, 0x6a, 
  0x4a, 0x18, 0x3b, 0xf2, 0xc0, 0xd1, 0x15, 0xc0, 0xe0, 0xc9, 0xdc, 0x1b, 
  0xb9, 0xe4, 0x81, 0x9a, 0xca, 0x8e, 0x7c, 0xfe, 0x06, 0xd3, 0xd4, 0xd3, 
  0xc9, 0xb6, 0x19, 0x2b, 0xdf, 0xed, 0x0a, 0xef, 0xfb, 0xd5, 0xfa, 0xc6, 
  0x7f, 0xe8, 0x57, 0x1b, 0x3b, 0x59, 0xee, 0xd6, 0xda, 0x0b, 0xca, 0xd0, 
  0xce, 0x1b, 0xf7, 0xde, 0xcf, 0x99, 0xa3, 0x30, 0x18, 0xcb, 0x34, 0x1b, 
  0x8d, 0x0d, 0xe9, 0x7f, 0x7b, 0xb2, 0x96, 0xd8, 0x5f, 0xcc, 0x06, 0x0a, 
  0xeb, 0x9d, 0xc1, 0x2e, 0xb9, 0x09, 0xb9, 0x02, 0x08, 0xe4, 0xe7, 0x4a, 
  0x48, 0xd0, 0xf7, 0x4a, 0xc7, 0xfd, 0x07, 0x10, 0x2f, 0xaf, 0x56, 0xb5, 
  0xb4, 0x0f, 0xc0, 0xde, 0xb3, 0xe7, 0x04, 0xe4, 0x27, 0xf9, 0xf6, 0x65, 
  0x81, 0x27, 0xc3, 0xf1, 0x1a, 0x05, 0xf1, 0xf7, 0xa7, 0xf1, 0xfb, 0x34, 
  0xf0, 0xca, 0xb9, 0x15, 0x28, 0x41, 0x2a, 0x1d, 0xcf, 0xf4, 0x81, 0x0a, 
  0x40, 0xd5, 0xfd, 0xbb, 0xee, 0xaa, 0x10, 0xee, 0xb8, 0x7d, 0x90, 0xc8, 
  0xfc, 0x2a, 0xca, 0x0c, 0x2a, 0x16, 0x32, 0x05, 0x99, 0x97, 0x20, 0x7f, 
  0xc3, 0xe0, 0xe4, 0xda, 0xd9, 0xca, 0xaa, 0xe3, 0x26, 0x3c, 0xeb, 0x2e, 
  0xfb, 0xfe, 0x5b, 0xe3, 0xf5, 0x6b, 0x22, 0x0e, 0x1d, 0x16, 0xc1, 0xd2, 
  0x08, 0xc7, 0x8e, 0x3f, 0xf7, 0xdb, 0x0a, 0x49, 0x17, 0xe2, 0x81, 0x75, 
  0xed, 0xdf, 0x06, 0xef, 0xdc, 0xe5, 0xcc, 0x5d, 0xfb, 0xba, 0x33, 0xae, 
  0xb3, 0x29, 0x8e, 0xa1, 0xe3, 0xe9, 0x17, 0xdb, 0x2d, 0x40, 0x3e, 0x21, 
  0xd1, 0x0d, 0xdb, 0xcf, 0x0f, 0xf3, 0xe3, 0xdd, 0x12, 0x01, 0x0f, 0xf4, 
  0xb5, 0xf0, 0xd2, 0xf8, 0x81, 0x01, 0xc9, 0xa7, 0xdb, 0xf9, 0x22, 0xac, 
  0xf0, 0x1e, 0x08, 0xe0, 0x22, 0xb9, 0xff, 0xff, 0x04, 0x00, 0x00, 0x00, 
  0x80, 0x00, 0x00, 0x00, 0x9b, 0x02, 0x00, 0x00, 0xaf, 0xff, 0xff, 0xff, 
  0x3f, 0xfe, 0xff, 0xff, 0x40, 0x05, 0x00, 0x00, 0x20, 0xff, 0xff, 0xff, 
  0x9e, 0xf2, 0xff, 0xff, 0x15, 0x04, 0x00, 0x00, 0x84, 0x03, 0x00, 0x00, 
  0xaf, 0xf4, 0xff, 0xff, 0xd0, 0xea, 0xff, 0xff, 0xac, 0x01, 0x00, 0x00, 
  0xa2, 0x04, 0x00, 0x00, 0x6c, 0x00, 0x00, 0x00, 0x43, 0xf7, 0xff, 0xff, 
  0x68, 0x03, 0x00, 0x00, 0x11, 0xfe, 0xff, 0xff, 0x2a, 0x03, 0x00, 0x00, 
  0xc8, 0xfd, 0xff, 0xff, 0x5c, 0xff, 0xff, 0xff, 0x22, 0x01, 0x00, 0x00, 
  0x70, 0xff, 0xff, 0xff, 0x92, 0x02, 0x00, 0x00, 0x47, 0x05, 0x00, 0x00, 
  0x98, 0xfa, 0xff, 0xff, 0x6e, 0x11, 0x00, 0x00, 0x91, 0xfd, 0xff, 0xff, 
  0xf9, 0x08, 0x00, 0x00, 0x4d, 0x06, 0x00, 0x00, 0x7a, 0xfa, 0xff, 0xff, 
  0x35, 0xf4, 0xff, 0xff, 0x7b, 0x12, 0x00, 0x00, 0xc7, 0xfd, 0xff, 0xff, 
  0xae, 0xb9, 0xff, 0xff, 0x04, 0x00, 0x00, 0x00, 0x00, 0x01, 0x00, 0x00, 
  0x24, 0xfd, 0x81, 0x29, 0xd1, 0xc2, 0xe5, 0xe5, 0xf1, 0xfc, 0x53, 0xf5, 
  0xc9, 0x12, 0xe1, 0x83, 0x9c, 0x1f, 0xc6, 0xf6, 0x29, 0xb6, 0xea, 0xad, 
  0xec, 0x8e, 0x28, 0x3d, 0x98, 0x2e, 0x37, 0xdf, 0x1b, 0xbb, 0xa3, 0xd6, 
  0xb3, 0xe9, 0xae, 0x07, 0x23, 0x04, 0x7f, 0x1d, 0x21, 0xf5, 0x35, 0xc3, 
  0xa1, 0xea, 0x49, 0x2a, 0x16, 0xff, 0x37, 0x58, 0x12, 0xcb, 0xea, 0xcd, 
  0xc8, 0x33, 0x0d, 0x63, 0xcc, 0x24, 0x51, 0x4a, 0x21, 0xe3, 0xe7, 0x34, 
  0xe9, 0x31, 0x39, 0x0e, 0x2e, 0xbe, 0xa2, 0x78, 0x7f, 0xec, 0xea, 0x8a, 
  0x2b, 0x01, 0x1d, 0xbc, 0xd9, 0x21, 0xe7, 0xe0, 0x1d, 0xd5, 0xce, 0xf2, 
  0x5b, 0x75, 0x04, 0x64, 0x57, 0x3b, 0xe7, 0x31, 0x50, 0xe7, 0x0f, 0xfa, 
  0x16, 0x2a, 0x2d, 0x1b, 0xfd, 0x4c, 0x07, 0x0d, 0x0f, 0xe9, 0x11, 0xea, 
  0x3a, 0xe0, 0x7f, 0x17, 0x16, 0x32, 0x3f, 0xa4, 0x22, 0xc8, 0xcb, 0x7f, 
  0xe8, 0xf9, 0x2b, 0x0b, 0x93, 0x8b, 0x19, 0x0c, 0x91, 0xe7, 0xdc, 0xd8, 
  0x11, 0xc6, 0xe4, 0xde, 0x95, 0xe3, 0x1e, 0xcb, 0x1d, 0x8f, 0x12, 0x44, 
  0xcd, 0x93, 0x17, 0xd4, 0xed, 0x9e, 0x1d, 0x00, 0xa2, 0x1c, 0x9d, 0xb4, 
  0x07, 0x40, 0x20, 0xcf, 0x53, 0x09, 0x48, 0xbc, 0xf9, 0xca, 0x4a, 0x1b, 
  0xd4, 0xc8, 0xd3, 0x21, 0xdb, 0xc8, 0xa5, 0x36, 0x10, 0x14, 0xed, 0x7f, 
  0xe8, 0x29, 0xbd, 0x3d, 0xb8, 0xbf, 0xc9, 0x4e, 0x12, 0x10, 0xc1, 0x11, 
  0xcc, 0xaf, 0xc7, 0xff, 0x52, 0x0f, 0x16, 0x90, 0xfa, 0x40, 0xc6, 0x31, 
  0x29, 0x04, 0x7f, 0x52, 0x01, 0x01, 0xe0, 0xd6, 0xae, 0x93, 0x07, 0xf2, 
  0x0b, 0xd0, 0xb9, 0xc8, 0x3c, 0xd8, 0x88, 0x11, 0x2f, 0x43, 0x10, 0x23, 
  0xf6, 0xbf, 0xcd, 0xc5, 0x36, 0xe1, 0x90, 0x7f, 0x73, 0x63, 0xc6, 0x78, 
  0x39, 0x57, 0x1a, 0xaa, 0xba, 0xba, 0xff, 0xff, 0x04, 0x00, 0x00, 0x00, 
  0x00, 0x01, 0x00, 0x00, 0x1b, 0x09, 0xeb, 0xf6, 0xdd, 0x1f, 0x17, 0x7f, 
  0x30, 0xcc, 0x81, 0xc6, 0x09, 0x1f, 0xd6, 0x87, 0xcb, 0x57, 0x63, 0x7f, 
  0xbc, 0xb7, 0xd7, 0xf3, 0x13, 0x02, 0x4a, 0xf7, 0x2b, 0x0c, 0x0e, 0x81, 
  0x35, 0x5b, 0xaf, 0xb2, 0x3e, 0x41, 0x1c, 0x81, 0xcd, 0x52, 0x9b, 0x2b, 
  0x81, 0x59, 0xdd, 0x50, 0xe3, 0x9c, 0x7f, 0xc7, 0xe2, 0xcb, 0xc2, 0x69, 
  0x92, 0x0d, 0x7f, 0xf8, 0xbe, 0xad, 0x1b, 0xe2, 0x5e, 0x1b, 0x81, 0xd2, 
  0x0d, 0x15, 0xdc, 0x21, 0x7f, 0x04, 0x81, 0x57, 0x62, 0xee, 0x40, 0x7c, 
  0x9c, 0xe0, 0xea, 0xb8, 0xb8, 0xea, 0x27, 0x7f, 0x23, 0x4d, 0x2b, 0xa8, 
  0x14, 0x45, 0xa0, 0x81, 0x4f, 0x81, 0xd7, 0x34, 0x6e, 0xc2, 0x64, 0x24, 
  0x23, 0x11, 0x84, 0x71, 0xd8, 0xd5, 0xfe, 0x7f, 0x26, 0x01, 0x0a, 0x07, 
  0x7f, 0xd3, 0x57, 0x42, 0xc7, 0x0c, 0xe8, 0xcb, 0x2a, 0x02, 0x61, 0x7f, 
  0x81, 0x8b, 0x2d, 0x17, 0x03, 0xdc, 0x48, 0x2b, 0x3c, 0x06, 0x81, 0xb7, 
  0x32, 0x01, 0x29, 0xe5, 0x68, 0xbf, 0x57, 0x92, 0x7f, 0xe4, 0xd2, 0xe2, 
  0x44, 0x4a, 0x15, 0x16, 0x33, 0x76, 0xd8, 0x81, 0xfa, 0x07, 0x0a, 0x39, 
  0x7f, 0xbf, 0xf3, 0xbc, 0xc7, 0x9b, 0x81, 0x03, 0xf1, 0xbb, 0x33, 0x37, 
  0xe0, 0xf8, 0x7f, 0xa3, 0xf3, 0x3c, 0x77, 0x40, 0xfd, 0x1d, 0x81, 0xfd, 
  0xde, 0x0c, 0xc9, 0x03, 0xf5, 0xf0, 0x20, 0x0e, 0xfb, 0x12, 0x7f, 0x2d, 
  0xe5, 0x20, 0x7f, 0x28, 0x1b, 0xc7, 0x6d, 0x0e, 0x4c, 0x4c, 0x73, 0x81, 
  0x4c, 0xcf, 0x17, 0xc8, 0x4f, 0x32, 0x83, 0x19, 0x91, 0x2f, 0x81, 0x79, 
  0xef, 0xd1, 0x09, 0x95, 0x7f, 0x13, 0xb9, 0xe4, 0x25, 0x71, 0xc3, 0x81, 
  0x40, 0x0d, 0xdd, 0x39, 0xda, 0xb3, 0x35, 0x1e, 0x5c, 0x02, 0x7f, 0xda, 
  0x43, 0x17, 0x81, 0x92, 0xda, 0xaa, 0x21, 0xe8, 0xc6, 0xbb, 0xff, 0xff, 
  0x04, 0x00, 0x00, 0x00, 0x00, 0x08, 0x00, 0x00, 0x2b, 0x09, 0x15, 0xb3, 
  0x06, 0x04, 0x81, 0x3c, 0x1a, 0x39, 0x32, 0x1c, 0xe2, 0xfc, 0x0b, 0x27, 
  0x14, 0x03, 0x19, 0x05, 0xf5, 0x0a, 0xfb, 0xed, 0xdb, 0x5a, 0x3a, 0x14, 
  0x01, 0xe7, 0xfc, 0x07, 0xef, 0x24, 0x12, 0x81, 0x15, 0xf2, 0x92, 0x14, 
  0x0f, 0xe7, 0xf4, 0xfa, 0xf7, 0xed, 0x06, 0x08, 0x14, 0x05, 0x26, 0x07, 
  0x36, 0x05, 0xa8, 0x18, 0x2c, 0xd2, 0xee, 0x15, 0x0a, 0x13, 0x15, 0xf0, 
  0xda, 0x10, 0xef, 0xcf, 0xc3, 0xd5, 0xf1, 0x05, 0xd0, 0x16, 0xea, 0xdc, 
  0x0f, 0x0b, 0xe7, 0xe8, 0x03, 0x09, 0x28, 0xa5, 0x0f, 0x28, 0x81, 0xe5, 
  0x2c, 0x24, 0xf0, 0x05, 0xf0, 0xef, 0x08, 0xd8, 0x45, 0x1a, 0xf2, 0x42, 
  0x22, 0x19, 0xa0, 0x25, 0x0e, 0x1a, 0x7f, 0x20, 0xee, 0xc3, 0x10, 0x02, 
  0xda, 0x0d, 0x1e, 0x6a, 0xf1, 0xbb, 0x20, 0xfe, 0xcc, 0x01, 0x12, 0xc3, 
  0xe1, 0x20, 0xf1, 0x20, 0xd2, 0x14, 0xf1, 0x81, 0x22, 0xfb, 0xd7, 0x1d, 
  0xe5, 0xe8, 0xbd, 0xe3, 0x28, 0xf1, 0x22, 0x19, 0x06, 0xe7, 0x05, 0xb7, 
  0x06, 0x08, 0x90, 0xe7, 0x25, 0x13, 0xf2, 0x34, 0xf2, 0x03, 0x2b, 0xf7, 
  0xdb, 0xc3, 0xcc, 0xee, 0xf7, 0xc1, 0x25, 0xf2, 0x81, 0xba, 0xc1, 0x1c, 
  0xe9, 0xc2, 0xd0, 0x08, 0x28, 0x0a, 0xfa, 0xa1, 0x15, 0x18, 0xcd, 0xfc, 
  0x0e, 0xe4, 0xe8, 0xdc, 0xea, 0xcf, 0xf9, 0x8f, 0x12, 0xd2, 0xc9, 0x5c, 
  0x05, 0x2f, 0xcc, 0x1b, 0xd9, 0x18, 0xf8, 0x19, 0x94, 0x00, 0x12, 0xc9, 
  0x81, 0x00, 0xf6, 0x2c, 0xfd, 0x9f, 0x07, 0xbe, 0xf4, 0xe3, 0x01, 0xfc, 
  0x0c, 0xca, 0x10, 0xe4, 0xff, 0x03, 0xf0, 0x23, 0x1f, 0x19, 0x81, 0xee, 
  0xfd, 0xfc, 0xfc, 0x3d, 0xd7, 0xf9, 0x13, 0xf2, 0xa0, 0xfa, 0xfc, 0x2d, 
  0xfc, 0x81, 0x31, 0x00, 0xd3, 0x06, 0x1d, 0xe2, 0xfb, 0x0f, 0xee, 0x0f, 
  0x9b, 0xb4, 0xcb, 0x08, 0xd1, 0x0b, 0xb3, 0x50, 0xd5, 0xe3, 0x81, 0xc0, 
  0xe4, 0xd4, 0x02, 0xeb, 0x5d, 0x32, 0x93, 0xf2, 0x22, 0x7b, 0xdd, 0xfd, 
  0x1a, 0x2f, 0x0a, 0xfa, 0xeb, 0xaf, 0x06, 0x90, 0xfd, 0xb5, 0xfc, 0xff, 
  0xde, 0xfe, 0xfb, 0x18, 0xc4, 0xba, 0x07, 0xf5, 0xef, 0xab, 0xaf, 0x0c, 
  0x23, 0x81, 0x1a, 0xcd, 0xed, 0xf8, 0x12, 0x21, 0xe8, 0xfb, 0x11, 0x11, 
  0xee, 0xfc, 0xff, 0x95, 0x1e, 0x36, 0xe7, 0x00, 0x14, 0x17, 0x8e, 0x0a, 
  0x19, 0x05, 0x23, 0x34, 0x5b, 0x10, 0x14, 0xf9, 0xef, 0x0d, 0x3f, 0xeb, 
  0x0b, 0x18, 0xed, 0x1f, 0x2f, 0x37, 0xea, 0x7f, 0xf6, 0xfe, 0x09, 0x40, 
  0xb2, 0x8d, 0x2b, 0xf7, 0xc8, 0x18, 0xec, 0x0a, 0xc3, 0xde, 0x81, 0xd2, 
  0x5a, 0xe8, 0x09, 0x0a, 0x12, 0x05, 0xe9, 0xb4, 0xec, 0x25, 0xaf, 0xfa, 
  0x37, 0x2e, 0xf6, 0xee, 0xe4, 0xf2, 0xfd, 0xed, 0xbd, 0xea, 0xd2, 0xfc, 
  0x0f, 0xeb, 0x30, 0xd1, 0xd7, 0x81, 0x9d, 0x17, 0xbb, 0xa1, 0xf3, 0x8f, 
  0xdc, 0xb0, 0xdf, 0xef, 0x9d, 0x0c, 0x2c, 0x08, 0xe9, 0xca, 0xdf, 0xec, 
  0xd3, 0xdb, 0xe3, 0xf4, 0xd6, 0xfe, 0xf2, 0xee, 0x01, 0xe5, 0x32, 0xbc, 
  0xa0, 0x97, 0x05, 0xc5, 0xed, 0xea, 0xdb, 0xea, 0xf5, 0xcf, 0xe9, 0xd1, 
  0xbb, 0xfc, 0x33, 0x2e, 0xf8, 0x81, 0xde, 0xac, 0xae, 0x88, 0xec, 0x08, 
  0xf9, 0xfe, 0xd3, 0x1a, 0xb0, 0x1b, 0x0e, 0xe8, 0x17, 0xf0, 0xfc, 0x0c, 
  0x99, 0xf6, 0xf4, 0x81, 0xaa, 0xf3, 0x06, 0xfa, 0xd8, 0xe7, 0xf5, 0x0f, 
  0xd3, 0xeb, 0xdc, 0xfa, 0xf5, 0xf7, 0xf2, 0x10, 0xf4, 0x99, 0x30, 0x54, 
  0xf8, 0xfc, 0x3a, 0xed, 0xc5, 0xdb, 0xdf, 0xdd, 0xfc, 0xbf, 0x07, 0xd4, 
  0xe6, 0x81, 0xe4, 0xdd, 0xb8, 0x86, 0x2a, 0x0e, 0xe8, 0xfa, 0xf0, 0x05, 
  0x8a, 0x2b, 0xfb, 0xec, 0x23, 0x07, 0xeb, 0x25, 0xfa, 0x9a, 0xfe, 0x1c, 
  0xba, 0xea, 0x40, 0xf9, 0xa6, 0xb4, 0xf5, 0xe4, 0xc2, 0x10, 0xf5, 0xfa, 
  0xa7, 0x9f, 0xe7, 0xf0, 0x57, 0xcb, 0x13, 0xfa, 0xc3, 0x81, 0xec, 0x32, 
  0xb0, 0xcb, 0xcd, 0xdd, 0xcb, 0xde, 0x00, 0x87, 0x35, 0x95, 0xb4, 0xfa, 
  0xdf, 0xf9, 0xd5, 0xdc, 0xf5, 0xed, 0x23, 0x16, 0x92, 0xfc, 0xde, 0xac, 
  0xa8, 0x81, 0x8c, 0x39, 0xac, 0xe5, 0x38, 0xea, 0xea, 0xd7, 0xd2, 0xf5, 
  0xee, 0x03, 0xe2, 0xbb, 0xe8, 0xc9, 0xcc, 0xc2, 0xf5, 0xee, 0xfd, 0xcf, 
  0xe8, 0xf6, 0xff, 0x15, 0xda, 0x2d, 0xe0, 0x2b, 0xf9, 0x1a, 0x81, 0x09, 
  0x08, 0xe0, 0xef, 0xfc, 0xf0, 0xa6, 0x11, 0xd9, 0xf0, 0xb3, 0xc8, 0xd0, 
  0xd0, 0xfc, 0x20, 0x32, 0xf1, 0xaa, 0xe5, 0xf1, 0xc9, 0xc3, 0x19, 0x26, 
  0x90, 0xcb, 0xee, 0x10, 0xf5, 0xe6, 0xdf, 0x08, 0x81, 0x1c, 0x04, 0xbd, 
  0xcc, 0xe3, 0xc3, 0xc2, 0xc5, 0xf3, 0x31, 0xaa, 0x17, 0xee, 0xc4, 0x20, 
  0x98, 0xc3, 0xaa, 0x87, 0x81, 0xe9, 0xfe, 0xfb, 0x9f, 0xfd, 0xe9, 0x38, 
  0xe4, 0xc2, 0xd4, 0xe0, 0xdc, 0x0a, 0xd3, 0xef, 0xfb, 0x0a, 0xee, 0x32, 
  0xf0, 0x0a, 0x23, 0xcc, 0xca, 0xf0, 0xec, 0x01, 0xc3, 0xef, 0xef, 0xab, 
  0x9f, 0xc1, 0x81, 0xf8, 0xee, 0xcc, 0x32, 0xe8, 0xb4, 0xf0, 0x06, 0x9e, 
  0x02, 0xea, 0x04, 0x07, 0xd9, 0x01, 0x81, 0xe6, 0x12, 0xdd, 0xf5, 0xe2, 
  0x11, 0x90, 0xd8, 0x22, 0xeb, 0x20, 0xe8, 0x27, 0x0c, 0xbc, 0xfd, 0xec, 
  0xfa, 0x30, 0xec, 0xe3, 0xbd, 0x92, 0x12, 0xf2, 0x88, 0xb7, 0xcb, 0xda, 
  0xf0, 0x9b, 0xf6, 0xbb, 0xde, 0x81, 0x40, 0xdb, 0xd8, 0xda, 0xe2, 0xbe, 
  0x10, 0xd2, 0xe0, 0xf4, 0xef, 0x97, 0xed, 0xb1, 0x8a, 0x49, 0xf9, 0x00, 
  0xb2, 0xa9, 0x0f, 0xf5, 0xb8, 0xf2, 0xd7, 0xdb, 0xbf, 0xc7, 0xcc, 0xea, 
  0xee, 0xfd, 0x12, 0x83, 0xee, 0xb6, 0x88, 0xff, 0x27, 0xf4, 0x05, 0x0b, 
  0xfc, 0xfe, 0x0b, 0x0b, 0xb9, 0xff, 0x06, 0x0f, 0x25, 0xaf, 0xcd, 0x1d, 
  0x81, 0x3b, 0x03, 0x25, 0x22, 0x1b, 0x18, 0xe5, 0x1e, 0x07, 0x81, 0x1a, 
  0x0b, 0x1d, 0x06, 0x1a, 0x19, 0x0c, 0x1b, 0x04, 0xf6, 0x20, 0x20, 0x22, 
  0x1e, 0xf6, 0x06, 0xf7, 0x04, 0x3f, 0xf7, 0x22, 0x18, 0x0b, 0x09, 0x17, 
  0xfd, 0x23, 0xf9, 0xde, 0x25, 0x15, 0x81, 0x29, 0x0a, 0x23, 0xf5, 0x25, 
  0x44, 0x1f, 0x3c, 0x1c, 0x0d, 0x03, 0xf4, 0x21, 0x04, 0x17, 0x27, 0x08, 
  0x4b, 0x40, 0xe3, 0x25, 0x19, 0x2e, 0x11, 0x20, 0x0b, 0xed, 0xe9, 0xeb, 
  0x11, 0x81, 0xfc, 0x2d, 0xe7, 0x11, 0x27, 0xed, 0x21, 0xb7, 0xff, 0xf3, 
  0x31, 0xa9, 0x0a, 0x14, 0xea, 0x5a, 0xe6, 0xda, 0xcb, 0x99, 0xbe, 0xfd, 
  0xb5, 0xa7, 0xf9, 0xef, 0xe4, 0xdc, 0x05, 0xf4, 0x35, 0xd4, 0xd3, 0xcc, 
  0x8c, 0x43, 0xc1, 0xa2, 0xcd, 0xac, 0xed, 0x81, 0xc1, 0xc6, 0xe4, 0xee, 
  0x3f, 0x05, 0xda, 0xf5, 0x30, 0xb1, 0xf8, 0x19, 0x06, 0xf6, 0x65, 0x11, 
  0x09, 0xda, 0xd1, 0xfb, 0xd8, 0x00, 0x05, 0xe5, 0xc7, 0xe7, 0x0e, 0xfd, 
  0x81, 0xe7, 0xf0, 0x09, 0xe6, 0xfe, 0xe7, 0xfe, 0xd3, 0xf0, 0xfb, 0x06, 
  0x08, 0xc5, 0xf2, 0xf1, 0xb6, 0x04, 0xfd, 0xf3, 0x15, 0xeb, 0xf2, 0xea, 
  0xf0, 0x04, 0xbf, 0xa6, 0x22, 0x0e, 0xf3, 0x28, 0xb5, 0x14, 0xe9, 0x0c, 
  0x81, 0x1a, 0x0c, 0x11, 0xf1, 0x19, 0xfa, 0x04, 0xe9, 0xa8, 0xf7, 0x2a, 
  0x01, 0x13, 0x15, 0x21, 0xd7, 0xc0, 0x24, 0x14, 0x27, 0xbc, 0x7f, 0x00, 
  0xa0, 0xc7, 0xb1, 0xc3, 0xdd, 0xa0, 0xf1, 0xe4, 0xfc, 0xa6, 0xf9, 0xba, 
  0xd9, 0xca, 0xe1, 0x19, 0x16, 0xe3, 0xec, 0xc0, 0x05, 0xe5, 0x03, 0x9c, 
  0xf5, 0xd0, 0x02, 0xf9, 0xeb, 0xfd, 0x0c, 0xce, 0x11, 0x97, 0xc7, 0x03, 
  0xe5, 0xc8, 0xbe, 0xe8, 0x0b, 0xc0, 0xec, 0xf4, 0x81, 0x2a, 0x08, 0xeb, 
  0x0a, 0x03, 0xfc, 0x1a, 0xce, 0x0e, 0xeb, 0xb8, 0x31, 0x44, 0x11, 0x2c, 
  0x22, 0x2c, 0x40, 0xc2, 0x30, 0xe6, 0x33, 0x1d, 0xb8, 0x12, 0x1e, 0xe7, 
  0xb3, 0x12, 0xed, 0x68, 0xd1, 0xa5, 0x6a, 0x4e, 0xcc, 0xc5, 0x2a, 0x8c, 
  0xbc, 0x7f, 0xe8, 0x61, 0x0c, 0xd6, 0x0c, 0x0c, 0xfe, 0xc1, 0xf0, 0xdd, 
  0x05, 0x22, 0xce, 0x08, 0x00, 0xb7, 0xf5, 0x05, 0xfa, 0x81, 0x03, 0xc0, 
  0xca, 0xe3, 0xf8, 0x00, 0x31, 0xfc, 0x0b, 0x1e, 0xe8, 0x1a, 0xc8, 0xd2, 
  0x10, 0xfb, 0x1c, 0x26, 0x08, 0x4f, 0xfd, 0xb8, 0x4a, 0xde, 0x31, 0x31, 
  0xe3, 0xdf, 0x19, 0x11, 0xdb, 0xee, 0xfb, 0x7f, 0xb0, 0xd3, 0x41, 0x23, 
  0x02, 0xc1, 0xd3, 0xd0, 0xdf, 0x6b, 0xc9, 0x79, 0x7f, 0x39, 0xe5, 0x1c, 
  0xca, 0x0c, 0xb3, 0xaa, 0x3c, 0x5c, 0x3a, 0x0a, 0xd5, 0x09, 0x33, 0x06, 
  0x9f, 0x67, 0x0e, 0x67, 0xf1, 0xff, 0xe0, 0x16, 0x10, 0x3c, 0x70, 0xf5, 
  0x4c, 0x55, 0xc8, 0x68, 0x1b, 0x0b, 0x19, 0xfa, 0x1f, 0xdb, 0xeb, 0x31, 
  0xae, 0xd4, 0x0b, 0xe2, 0x0b, 0x81, 0xe8, 0xad, 0x8c, 0x9d, 0xce, 0x05, 
  0x02, 0x1d, 0xed, 0xeb, 0x0f, 0x28, 0xd0, 0x1c, 0x0a, 0xee, 0x00, 0xfc, 
  0x04, 0xd2, 0xed, 0xf0, 0x20, 0x05, 0x02, 0xfe, 0x2b, 0xfe, 0x08, 0xf6, 
  0x81, 0xe4, 0xfe, 0xd1, 0x0a, 0xbf, 0x01, 0xf4, 0xe5, 0xd2, 0x03, 0xc9, 
  0x0f, 0xd2, 0x03, 0xe8, 0x90, 0xfe, 0x00, 0x08, 0xfc, 0x0e, 0x06, 0x0c, 
  0xf3, 0xcd, 0xc1, 0xfc, 0xef, 0xff, 0xc3, 0x02, 0xf7, 0x04, 0x04, 0xfa, 
  0xe3, 0x34, 0x02, 0xf4, 0xef, 0xf7, 0x81, 0x1f, 0x26, 0x06, 0xe6, 0x2a, 
  0xd4, 0xe4, 0x0f, 0xce, 0x05, 0x16, 0xe2, 0x02, 0x81, 0x01, 0x0f, 0xaa, 
  0xe1, 0xb6, 0xba, 0xf7, 0xb8, 0x58, 0xba, 0xf4, 0xda, 0x05, 0x98, 0xf2, 
  0xa3, 0x20, 0x35, 0xf0, 0xef, 0xd8, 0x85, 0xe1, 0xf4, 0x04, 0xd5, 0xd4, 
  0x0a, 0xfe, 0xd4, 0x07, 0xff, 0x29, 0x0c, 0x2a, 0xc0, 0x81, 0xe2, 0x36, 
  0xf2, 0x90, 0x1a, 0xda, 0xd6, 0x8f, 0xf1, 0xfd, 0xd9, 0xff, 0x2a, 0x19, 
  0xf1, 0x14, 0xef, 0x49, 0xdb, 0xb0, 0x08, 0xe4, 0xd8, 0xa8, 0x8b, 0xc4, 
  0x15, 0xa6, 0x00, 0xe5, 0x06, 0x95, 0xf9, 0x14, 0xdb, 0x89, 0x12, 0x8a, 
  0xaa, 0x81, 0x34, 0xe7, 0xc6, 0xcf, 0xa4, 0xb5, 0x19, 0xdd, 0xb9, 0x6c, 
  0x9d, 0xa4, 0xc8, 0xd9, 0x06, 0xe6, 0x06, 0xac, 0x05, 0x14, 0x9a, 0xff, 
  0xd3, 0xc9, 0x81, 0xba, 0x51, 0xfb, 0xfd, 0x19, 0xf6, 0xab, 0xd1, 0xff, 
  0x09, 0x13, 0x8e, 0xe0, 0x48, 0x0f, 0xc7, 0xd6, 0xaa, 0x84, 0xce, 0x9f, 
  0xeb, 0xf5, 0xfc, 0xea, 0xf1, 0x08, 0x01, 0xf2, 0x99, 0xa0, 0x81, 0x03, 
  0xd7, 0xbf, 0xdd, 0xc8, 0xf1, 0xc5, 0xbe, 0xcc, 0x00, 0x1c, 0x00, 0x31, 
  0x14, 0xcd, 0xc3, 0xdd, 0x15, 0xa5, 0xd8, 0xf0, 0x17, 0x81, 0xd1, 0x32, 
  0xc5, 0xf3, 0x21, 0x0c, 0x8c, 0xbb, 0x08, 0xdd, 0xe8, 0xa8, 0x00, 0x9a, 
  0x0b, 0xad, 0x14, 0x1e, 0xce, 0x15, 0x0b, 0x00, 0x4a, 0x96, 0x00, 0x26, 
  0xbf, 0xea, 0x53, 0x14, 0x02, 0x19, 0x20, 0xe9, 0xcd, 0xc0, 0x50, 0x81, 
  0x82, 0xba, 0xcb, 0xfd, 0xe8, 0x90, 0x93, 0xc8, 0x0a, 0xb3, 0xf0, 0xfc, 
  0xef, 0xc0, 0x42, 0x07, 0x92, 0x2a, 0x21, 0xf3, 0xd4, 0xc1, 0xd2, 0xc4, 
  0x05, 0x41, 0x02, 0xe1, 0x0f, 0x4a, 0xcc, 0x0e, 0x2c, 0x2b, 0x3e, 0xfa, 
  0x18, 0x50, 0x65, 0x44, 0x03, 0x47, 0xfe, 0xeb, 0x49, 0x1a, 0x17, 0x53, 
  0xfe, 0x3f, 0x7f, 0x07, 0x72, 0x6b, 0x2e, 0x25, 0x93, 0xc8, 0xee, 0x15, 
  0x25, 0x81, 0x15, 0x12, 0xba, 0xc3, 0xe4, 0xbf, 0x06, 0xe8, 0xf2, 0xd9, 
  0xad, 0xe2, 0x97, 0xe0, 0xee, 0x1c, 0xf5, 0xd1, 0x30, 0x1f, 0xd8, 0xd7, 
  0x00, 0x8f, 0xed, 0x1a, 0xe1, 0xcc, 0xe7, 0xda, 0xec, 0xa4, 0x1c, 0xf1, 
  0xc9, 0xee, 0x9d, 0x29, 0xf9, 0x9a, 0x0c, 0x05, 0x23, 0x81, 0x16, 0x8a, 
  0x07, 0x11, 0x08, 0xe2, 0x17, 0xee, 0x14, 0xf3, 0xaf, 0x0f, 0x14, 0xd6, 
  0x08, 0x2d, 0xaf, 0x25, 0x25, 0x81, 0xe0, 0xe9, 0xf5, 0x8c, 0xb9, 0xdb, 
  0x8d, 0x33, 0x96, 0xa8, 0x09, 0x15, 0x0e, 0xbe, 0xb0, 0xbc, 0xf9, 0x32, 
  0x40, 0xa9, 0xc8, 0xf5, 0xe1, 0x90, 0x94, 0xc0, 0xf2, 0xf0, 0xf5, 0x3b, 
  0x14, 0x0a, 0xf3, 0xfc, 0xb3, 0xdf, 0x0b, 0x0d, 0xd6, 0xd6, 0x03, 0xc6, 
  0x81, 0xc7, 0xee, 0x25, 0xf6, 0x97, 0x27, 0xd5, 0x30, 0xd6, 0xd1, 0xcc, 
  0xf7, 0xe9, 0x1a, 0xe4, 0x1a, 0xc9, 0xef, 0xe6, 0xe7, 0x18, 0x05, 0x09, 
  0xa3, 0x81, 0xa0, 0xff, 0x2c, 0x93, 0xd9, 0x2b, 0x46, 0xc8, 0xbe, 0xf5, 
  0xe6, 0x2e, 0xdc, 0x0e, 0x32, 0x35, 0x0a, 0xe0, 0xed, 0xff, 0x9d, 0xa5, 
  0x8a, 0xf0, 0xd5, 0xd5, 0xde, 0x00, 0x08, 0x04, 0x9b, 0x95, 0x02, 0xdf, 
  0x20, 0xae, 0xe3, 0xfc, 0xe8, 0xa0, 0x81, 0x85, 0x0e, 0xeb, 0xde, 0xdd, 
  0xe3, 0xd8, 0xec, 0xfe, 0xb9, 0xa5, 0xe8, 0x90, 0xe2, 0xc8, 0xd6, 0x6f, 
  0x03, 0xd4, 0xf6, 0x04, 0xc1, 0xd9, 0xf1, 0xf7, 0xd5, 0xcc, 0xce, 0xed, 
  0x08, 0xbe, 0xa5, 0xe4, 0xad, 0x81, 0x57, 0x00, 0x0f, 0xe6, 0xbd, 0xc7, 
  0xbf, 0x0c, 0xc1, 0xb9, 0xea, 0x0b, 0x32, 0x06, 0xd4, 0x08, 0xfe, 0x0a, 
  0x99, 0xd4, 0xf8, 0x0f, 0xc3, 0xd5, 0xf3, 0xf1, 0x86, 0x81, 0xda, 0xf6, 
  0xf5, 0x1e, 0x08, 0xec, 0x17, 0xd8, 0x26, 0xcd, 0xd7, 0x04, 0x13, 0x0a, 
  0x16, 0x81, 0xf8, 0xf4, 0xf7, 0x16, 0xc5, 0xf1, 0x1a, 0xcb, 0xe4, 0xf9, 
  0x20, 0xb3, 0x05, 0x95, 0xe5, 0xbf, 0x07, 0xe9, 0xb4, 0x12, 0xdb, 0x31, 
  0x0a, 0xfc, 0x02, 0x62, 0xfd, 0xdc, 0xfa, 0x07, 0xe8, 0x0b, 0xee, 0xe9, 
  0x18, 0x36, 0xf1, 0x25, 0x93, 0xf8, 0xb6, 0xd6, 0x2f, 0xd0, 0xac, 0x2b, 
  0x31, 0x19, 0x23, 0x81, 0xf4, 0x0c, 0xc1, 0xf5, 0xd6, 0x0b, 0xda, 0x03, 
  0x04, 0xb3, 0xed, 0xb5, 0x2e, 0xe3, 0x23, 0x14, 0xa1, 0x0c, 0x08, 0x81, 
  0x9b, 0xbf, 0x93, 0xc8, 0xc5, 0xf2, 0x8b, 0x1a, 0x1a, 0xd8, 0x84, 0xc3, 
  0x94, 0xe1, 0xe5, 0xee, 0xe0, 0x8a, 0xf3, 0xae, 0xd7, 0xc6, 0xcc, 0xdc, 
  0xe9, 0x0d, 0xf5, 0xf9, 0x0c, 0x08, 0xe1, 0xb6, 0xce, 0x9e, 0x06, 0x33, 
  0x81, 0x12, 0x0d, 0xe5, 0xc4, 0x10, 0xbe, 0xf9, 0xf2, 0xbd, 0xe7, 0xe6, 
  0x32, 0x8f, 0xf2, 0x11, 0xc5, 0xe8, 0xfc, 0xee, 0x10, 0x12, 0xd7, 0x28, 
  0x1f, 0x27, 0xa2, 0x1b, 0xe6, 0xd9, 0xfc, 0x30, 0xd2, 0xde, 0x18, 0xe3, 
  0x91, 0xd8, 0xe4, 0x22, 0xde, 0x81, 0x44, 0xda, 0xeb, 0xf5, 0x29, 0xe0, 
  0x0b, 0xc2, 0x35, 0xff, 0xd4, 0x37, 0xe2, 0xdb, 0x34, 0xf9, 0xec, 0xe8, 
  0xc5, 0x03, 0x04, 0x1f, 0x30, 0x25, 0xce, 0x03, 0x18, 0xe4, 0xcb, 0xa2, 
  0x0a, 0x70, 0x81, 0xec, 0xf2, 0x26, 0xff, 0xc8, 0xee, 0xf4, 0xfa, 0x2b, 
  0x22, 0xe7, 0x12, 0x00, 0x20, 0xf3, 0x06, 0x11, 0xbb, 0xf9, 0x10, 0xf2, 
  0xab, 0xd5, 0x06, 0xf8, 0x0b, 0xa7, 0xfa, 0x0c, 0x81, 0xf1, 0xf0, 0xf0, 
  0xf1, 0x14, 0xf7, 0x20, 0xaa, 0xed, 0xd6, 0xeb, 0xe7, 0x0a, 0x22, 0xe5, 
  0xe8, 0x04, 0xdf, 0x4a, 0x49, 0x7f, 0x27, 0x1d, 0x3a, 0x3f, 0x33, 0x4f, 
  0x00, 0x5e, 0x28, 0x25, 0x27, 0xd2, 0xda, 0x04, 0xbd, 0x15, 0x3f, 0x03, 
  0x0c, 0x57, 0x0c, 0x09, 0xd2, 0xc3, 0xff, 0xff, 0x04, 0x00, 0x00, 0x00, 
  0x00, 0x01, 0x00, 0x00, 0x90, 0xe4, 0xff, 0xff, 0xe0, 0x10, 0x00, 0x00, 
  0x2b, 0x01, 0x00, 0x00, 0xb7, 0xe2, 0xff, 0xff, 0x6c, 0xfe, 0xff, 0xff, 
  0x19, 0xf1, 0xff, 0xff, 0x59, 0x11, 0x00, 0x00, 0x91, 0xe1, 0xff, 0xff, 
  0x2d, 0xf9, 0xff, 0xff, 0x76, 0xe5, 0xff, 0xff, 0x96, 0xbd, 0xff, 0xff, 
  0x11, 0xd6, 0xff, 0xff, 0x00, 0x36, 0x00, 0x00, 0xfc, 0xd4, 0xff, 0xff, 
  0x2a, 0x09, 0x00, 0x00, 0x7e, 0xfb, 0xff, 0xff, 0xa5, 0x2b, 0x00, 0x00, 
  0xe1, 0x07, 0x00, 0x00, 0x19, 0x13, 0x00, 0x00, 0x3b, 0x3a, 0x00, 0x00, 
  0xa5, 0x38, 0x00, 0x00, 0xe5, 0x0a, 0x00, 0x00, 0x76, 0x16, 0x00, 0x00, 
  0x85, 0x25, 0x00, 0x00, 0x9a, 0xd2, 0xff, 0xff, 0x6d, 0xdc, 0xff, 0xff, 
  0x53, 0x9e, 0xff, 0xff, 0xb0, 0x00, 0x00, 0x00, 0x42, 0xdb, 0xff, 0xff, 
  0x27, 0xfe, 0xff, 0xff, 0x52, 0xf0, 0xff, 0xff, 0xfc, 0x00, 0x00, 0x00, 
  0x2b, 0xf8, 0xff, 0xff, 0x1e, 0x9f, 0xff, 0xff, 0xb7, 0xe4, 0xff, 0xff, 
  0xb0, 0xa9, 0xff, 0xff, 0x71, 0x8f, 0xff, 0xff, 0x97, 0xee, 0xff, 0xff, 
  0x97, 0xf9, 0xff, 0xff, 0x48, 0x0e, 0x00, 0x00, 0xd1, 0x2d, 0x00, 0x00, 
  0x06, 0x9a, 0xff, 0xff, 0x21, 0x4a, 0x00, 0x00, 0x05, 0xff, 0xff, 0xff, 
  0xe8, 0xe4, 0xff, 0xff, 0xe5, 0x0f, 0x00, 0x00, 0x8a, 0xde, 0xff, 0xff, 
  0xce, 0xa3, 0xff, 0xff, 0x84, 0x17, 0x00, 0x00, 0x4c, 0xdb, 0xff, 0xff, 
  0x5e, 0xe5, 0xff, 0xff, 0xe8, 0x16, 0x00, 0x00, 0x95, 0xc5, 0xff, 0xff, 
  0xcc, 0x3f, 0x00, 0x00, 0x80, 0x1f, 0x00, 0x00, 0x9e, 0xe3, 0xff, 0xff, 
  0xcf, 0xf8, 0xff, 0xff, 0x98, 0xe3, 0xff, 0xff, 0xa9, 0xf7, 0xff, 0xff, 
  0x79, 0x1a, 0x00, 0x00, 0x80, 0xc4, 0xff, 0xff, 0x63, 0x05, 0x00, 0x00, 
  0x71, 0x1b, 0x00, 0x00, 0x4e, 0xd4, 0xff, 0xff, 0xde, 0xc4, 0xff, 0xff, 
  0x04, 0x00, 0x00, 0x00, 0x60, 0x00, 0x00, 0x00, 0xb1, 0xb8, 0xc2, 0x5e, 
  0xf3, 0x3e, 0xaa, 0x33, 0x7f, 0x86, 0x0a, 0xa7, 0x60, 0x82, 0x42, 0x81, 
  0xdc, 0x81, 0x1f, 0xcc, 0x7f, 0x64, 0x7f, 0xc8, 0x81, 0xd8, 0x47, 0x30, 
  0x9d, 0x43, 0x9f, 0x58, 0x81, 0x81, 0x01, 0x61, 0x29, 0xf7, 0x81, 0x65, 
  0x41, 0x81, 0x7f, 0x81, 0x7f, 0x81, 0x5d, 0xa4, 0x81, 0xce, 0x7f, 0xdc, 
  0x5c, 0x7f, 0x74, 0x7f, 0xdb, 0xfb, 0xf2, 0x7f, 0x33, 0xed, 0xfc, 0x7f, 
  0xc5, 0x87, 0x7f, 0x7f, 0x7f, 0x81, 0xbd, 0x7f, 0xc1, 0xd4, 0x69, 0xb2, 
  0x26, 0x03, 0x7f, 0x2e, 0x99, 0x47, 0x60, 0x7f, 0x30, 0x25, 0x2e, 0x60, 
  0x51, 0x7f, 0x81, 0x45, 0x7f, 0x81, 0x7f, 0x22, 0x4a, 0xc5, 0xff, 0xff, 
  0x04, 0x00, 0x00, 0x00, 0x00, 0x08, 0x00, 0x00, 0xeb, 0x1a, 0xd9, 0xa5, 
  0x39, 0xa2, 0xb9, 0x53, 0xe3, 0x9a, 0xd4, 0xd1, 0xe3, 0xc6, 0x1e, 0x3c, 
  0x31, 0x43, 0x45, 0x47, 0x75, 0xbc, 0x8e, 0xa3, 0x39, 0xe8, 0xbc, 0x9c, 
  0x7f, 0x8c, 0x00, 0x20, 0xc5, 0x26, 0x4c, 0xfd, 0xdd, 0x07, 0x2c, 0x40, 
  0xfe, 0x55, 0xaa, 0x39, 0x08, 0xac, 0x81, 0x4f, 0x0e, 0xd9, 0xc9, 0x01, 
  0xde, 0xe9, 0xb4, 0xff, 0x49, 0x26, 0x03, 0x38, 0xa2, 0x35, 0x1b, 0xe3, 
  0x15, 0xa5, 0x03, 0xea, 0x38, 0xed, 0xa7, 0x03, 0x14, 0xa8, 0xc4, 0xfb, 
  0x41, 0xa9, 0x28, 0xda, 0xfd, 0x81, 0x21, 0xed, 0xe5, 0x61, 0x08, 0xab, 
  0x1e, 0xdf, 0xfd, 0x1c, 0xc0, 0x3d, 0xc0, 0x0a, 0xf9, 0x67, 0xe9, 0xb9, 
  0xc9, 0xa9, 0x21, 0x17, 0xe0, 0x7c, 0x70, 0x26, 0x81, 0x1b, 0x03, 0x2f, 
  0x35, 0xe2, 0xf5, 0x23, 0x8f, 0xdf, 0xec, 0xf0, 0x3f, 0x52, 0xfc, 0xea, 
  0x0b, 0xe2, 0x3e, 0xe1, 0xc9, 0x00, 0x2c, 0x55, 0x24, 0xa6, 0xdc, 0xea, 
  0xfd, 0xfa, 0xed, 0xbb, 0x83, 0x29, 0x17, 0x2d, 0xe4, 0x5e, 0x2b, 0x29, 
  0xb2, 0xc9, 0x2e, 0x1e, 0xf6, 0xe6, 0xf9, 0xd8, 0x09, 0x81, 0xf6, 0x29, 
  0x2e, 0xdb, 0xa4, 0xc5, 0xbe, 0x93, 0xe3, 0xed, 0xf6, 0x19, 0x6f, 0xe4, 
  0x18, 0xca, 0x37, 0xf8, 0x13, 0x51, 0x08, 0x13, 0xea, 0x0e, 0x44, 0x7f, 
  0xeb, 0xe2, 0xc5, 0xc7, 0x33, 0x08, 0xf8, 0x18, 0x1a, 0xf3, 0xb2, 0xe5, 
  0x10, 0x3f, 0x5e, 0xef, 0x76, 0xde, 0xcf, 0xf8, 0x2e, 0x17, 0x01, 0xa1, 
  0x12, 0xb8, 0x29, 0xe4, 0x42, 0x05, 0xdb, 0xe5, 0xd5, 0xf6, 0x16, 0x01, 
  0x81, 0x2c, 0xe4, 0x41, 0xd2, 0xbe, 0xd7, 0xf2, 0xfe, 0xe3, 0xab, 0x2d, 
  0x1b, 0xea, 0x0d, 0x11, 0x19, 0x08, 0x45, 0xf8, 0xdf, 0xee, 0x7f, 0x1c, 
  0x13, 0x60, 0xc2, 0xeb, 0xa0, 0x22, 0x06, 0xc9, 0xe3, 0xe9, 0xed, 0x2f, 
  0x26, 0xa5, 0x02, 0x0c, 0xe7, 0x08, 0x7f, 0xbe, 0x3f, 0xf5, 0x0b, 0xc4, 
  0x11, 0x93, 0x14, 0xd8, 0xc9, 0xef, 0x1a, 0x0d, 0xe9, 0xd3, 0xe3, 0xc1, 
  0x34, 0xeb, 0x22, 0x03, 0x24, 0xca, 0x26, 0x17, 0xf0, 0x34, 0x37, 0x01, 
  0x81, 0x3d, 0xe7, 0x85, 0xe7, 0x01, 0xc2, 0xe5, 0x9c, 0x51, 0xf6, 0x6e, 
  0xf9, 0x3c, 0xb2, 0xf7, 0xa7, 0x1d, 0x0d, 0x35, 0x91, 0xb7, 0x4a, 0xd5, 
  0x17, 0x17, 0xd8, 0x47, 0x32, 0xc8, 0xf3, 0x81, 0x24, 0xba, 0x0e, 0x42, 
  0xd0, 0x15, 0xbc, 0xf9, 0x47, 0x42, 0x75, 0xf8, 0xf9, 0xee, 0xd6, 0x05, 
  0x45, 0x18, 0xd4, 0x2a, 0xd0, 0xf1, 0xeb, 0xe1, 0x38, 0x23, 0x0d, 0xcb, 
  0xe7, 0x16, 0xfd, 0x07, 0xfd, 0xeb, 0x20, 0xc8, 0xfb, 0xef, 0x31, 0x1e, 
  0xaa, 0x09, 0x0c, 0x2d, 0x09, 0xef, 0x06, 0x67, 0xac, 0x81, 0x64, 0xc1, 
  0xed, 0xc0, 0x10, 0x10, 0x10, 0xf9, 0xc8, 0x09, 0x4b, 0x1b, 0x9a, 0x19, 
  0x1a, 0x81, 0x06, 0xc7, 0xfd, 0x0a, 0x24, 0x37, 0xbc, 0x34, 0xf7, 0x11, 
  0x28, 0x2b, 0x0a, 0xfb, 0x5c, 0x13, 0xcf, 0xd9, 0x38, 0xb6, 0x27, 0xb7, 
  0x52, 0xc8, 0x42, 0x0b, 0xe6, 0xf9, 0xf4, 0x09, 0xe9, 0x69, 0xd2, 0xfc, 
  0x2c, 0xcb, 0x0d, 0x00, 0x01, 0xec, 0xe3, 0xbf, 0xf9, 0x81, 0xfa, 0x13, 
  0x1e, 0xfd, 0xd2, 0xed, 0x3e, 0xd0, 0x64, 0xef, 0xc7, 0x48, 0xab, 0xf1, 
  0x25, 0xed, 0x0e, 0xe9, 0x0d, 0xe1, 0xca, 0x23, 0xcf, 0x2f, 0x4d, 0xe2, 
  0xd4, 0xfe, 0x15, 0x37, 0x28, 0x10, 0xe1, 0xff, 0x18, 0x81, 0x27, 0xff, 
  0xcb, 0xe3, 0x01, 0xd0, 0x44, 0xd9, 0xab, 0xe3, 0x01, 0xea, 0x16, 0x7f, 
  0x04, 0xe3, 0xf8, 0x00, 0xf7, 0x11, 0x11, 0xea, 0x96, 0xf8, 0x2a, 0x3c, 
  0xd9, 0x66, 0xbf, 0x22, 0xef, 0xe0, 0x3a, 0xfe, 0x58, 0x25, 0xba, 0xb2, 
  0x12, 0x3e, 0xfa, 0x9b, 0xf9, 0x19, 0x9f, 0x17, 0xa6, 0x52, 0x00, 0x9d, 
  0x3c, 0x1f, 0x3e, 0x09, 0xfa, 0xcc, 0xba, 0xfe, 0x42, 0xcb, 0xc3, 0x9d, 
  0x0f, 0x44, 0x1e, 0x66, 0xba, 0xa6, 0x6d, 0x7f, 0x82, 0x3c, 0x08, 0x05, 
  0x01, 0xcf, 0x42, 0xbc, 0x0f, 0xe1, 0xfd, 0xf9, 0x09, 0x42, 0x27, 0x38, 
  0xc3, 0xab, 0x0f, 0xca, 0x40, 0xe1, 0x52, 0xe6, 0xfd, 0xbd, 0x08, 0xfe, 
  0x5b, 0xfc, 0xda, 0xae, 0x2b, 0x2b, 0x7f, 0xd1, 0xe9, 0x50, 0xe8, 0xf7, 
  0x32, 0x42, 0x26, 0x14, 0xef, 0xea, 0xf7, 0x09, 0xd5, 0x5c, 0xf8, 0x11, 
  0x1b, 0x5d, 0xd1, 0xec, 0xd7, 0xf7, 0xc1, 0x81, 0xd9, 0xe8, 0x1c, 0x3b, 
  0xe8, 0xb4, 0x15, 0xbc, 0xbf, 0xd9, 0x09, 0x51, 0x4c, 0x18, 0x81, 0x20, 
  0x23, 0x6c, 0x1d, 0x90, 0x23, 0x1e, 0x65, 0xe5, 0xf0, 0x74, 0x3a, 0x3c, 
  0x56, 0x2c, 0x5f, 0xeb, 0x4c, 0xce, 0xf6, 0x28, 0xfd, 0x3e, 0x30, 0x0c, 
  0x54, 0x50, 0x28, 0x7f, 0xe5, 0xb4, 0xee, 0xfb, 0x3f, 0xa5, 0xe0, 0x01, 
  0x8b, 0xde, 0x91, 0x17, 0x0b, 0xdc, 0xf8, 0x5c, 0xad, 0xb6, 0xed, 0x14, 
  0x52, 0xde, 0x1d, 0x85, 0x32, 0x50, 0xc7, 0xdd, 0xf8, 0xe6, 0xd8, 0x37, 
  0xdb, 0xee, 0xf9, 0x6c, 0xbf, 0x51, 0xd4, 0xf7, 0x24, 0x3e, 0x00, 0xed, 
  0x11, 0x18, 0xf9, 0xf7, 0x35, 0x81, 0x3c, 0xc6, 0x0a, 0xed, 0x6f, 0xe4, 
  0x9a, 0x30, 0xb2, 0x96, 0xac, 0x77, 0x22, 0xd7, 0x18, 0x25, 0x0d, 0x44, 
  0x88, 0xe6, 0x74, 0x2c, 0x90, 0x70, 0x23, 0x62, 0x41, 0x09, 0xd2, 0xe6, 
  0xa4, 0x81, 0xf7, 0x94, 0x8b, 0x21, 0x44, 0xd9, 0x0b, 0xf1, 0xfc, 0x06, 
  0x17, 0x4f, 0x2a, 0x86, 0xfc, 0x01, 0xf8, 0xe2, 0x0d, 0x17, 0x1b, 0x07, 
  0xf4, 0xf2, 0xe3, 0xfa, 0xb9, 0x0a, 0x13, 0xe8, 0xf8, 0xd4, 0x81, 0xce, 
  0xde, 0xf2, 0xf7, 0xcc, 0x27, 0x1c, 0x18, 0xf0, 0xda, 0xe0, 0x0a, 0xec, 
  0x3a, 0xf7, 0x7f, 0x13, 0xe6, 0x08, 0x1e, 0xb7, 0xf4, 0x2a, 0x34, 0x15, 
  0x08, 0x36, 0xf7, 0xc4, 0x10, 0xb6, 0xef, 0xfe, 0xe6, 0x22, 0xbe, 0xfb, 
  0x13, 0xf2, 0x1c, 0xde, 0x20, 0x14, 0x9e, 0xb8, 0xe3, 0xef, 0xe6, 0xd6, 
  0x0f, 0x10, 0xfc, 0xd3, 0x2f, 0xe3, 0x50, 0xf7, 0x30, 0xd2, 0x69, 0xd1, 
  0x41, 0x0f, 0x00, 0x47, 0x85, 0x07, 0x7f, 0x1e, 0xad, 0xeb, 0x99, 0x3b, 
  0x7f, 0xb9, 0x16, 0x13, 0x12, 0x72, 0xbd, 0xa0, 0xa5, 0x33, 0x0c, 0xc3, 
  0xdc, 0x7a, 0xf1, 0x0d, 0x22, 0x58, 0xa7, 0x1d, 0xdf, 0xfc, 0xb1, 0xdd, 
  0x2e, 0x0c, 0x98, 0xe4, 0x41, 0x0d, 0x32, 0x81, 0x1f, 0x94, 0xd6, 0xe6, 
  0x8c, 0x89, 0xc0, 0xc6, 0xd0, 0xdc, 0x61, 0xb5, 0x86, 0x0c, 0x0a, 0x1d, 
  0x1f, 0xf9, 0xfe, 0xff, 0xb5, 0x81, 0x36, 0xb7, 0x47, 0xac, 0x28, 0xb4, 
  0xc5, 0xcb, 0xde, 0x47, 0xfb, 0x03, 0x81, 0xd4, 0xd3, 0x6b, 0xf5, 0xc6, 
  0x1a, 0x0c, 0xbf, 0xee, 0x1a, 0x06, 0xdf, 0xce, 0xd6, 0xbc, 0xbb, 0xa9, 
  0x00, 0x1c, 0xe4, 0x01, 0xf8, 0xa8, 0x6b, 0xda, 0xac, 0x73, 0xac, 0x13, 
  0x7f, 0x2a, 0x11, 0xe9, 0xc4, 0x28, 0xcb, 0xef, 0x27, 0x47, 0xa4, 0x31, 
  0x2f, 0x3a, 0xcf, 0xfe, 0xde, 0xd4, 0x06, 0x33, 0xd2, 0x37, 0xed, 0x01, 
  0x51, 0xda, 0xfb, 0xe1, 0x0f, 0xeb, 0x33, 0xf7, 0xa8, 0x0f, 0xa0, 0xdd, 
  0x0b, 0x52, 0x8a, 0xdc, 0x44, 0xb2, 0x53, 0xc9, 0xd5, 0xe5, 0x22, 0xa4, 
  0x15, 0x81, 0x19, 0x2c, 0x14, 0x40, 0xde, 0x2e, 0x9c, 0xbe, 0x32, 0xd4, 
  0xba, 0x5a, 0xc6, 0x32, 0xf0, 0xf1, 0xe7, 0xb4, 0xf8, 0x0a, 0xd9, 0xc5, 
  0x38, 0xd9, 0xf5, 0x1c, 0xec, 0xef, 0x4a, 0x3c, 0x14, 0x81, 0x5d, 0x15, 
  0x34, 0x0d, 0xb7, 0xe9, 0xf9, 0xb2, 0x5f, 0x3a, 0xa1, 0x02, 0x12, 0xf1, 
  0xd6, 0xc6, 0xe1, 0xcb, 0xe1, 0xff, 0xfd, 0xbe, 0x7f, 0x9f, 0xec, 0x20, 
  0xfc, 0xa1, 0x22, 0x98, 0x52, 0xb7, 0x43, 0x0a, 0x2d, 0xe0, 0xdd, 0xc6, 
  0xaf, 0x0e, 0x3c, 0xf7, 0xad, 0xa8, 0xc7, 0xe6, 0xf9, 0xd1, 0x14, 0x07, 
  0x13, 0x05, 0x7f, 0xf4, 0x04, 0xe2, 0xf0, 0xe6, 0x00, 0xd4, 0x2a, 0x0a, 
  0x24, 0x1b, 0x19, 0x03, 0x13, 0xe8, 0x04, 0x17, 0x1c, 0x14, 0xf6, 0xf0, 
  0x11, 0xc1, 0x1e, 0x15, 0x1f, 0xe7, 0xdb, 0x95, 0xe9, 0x1b, 0xf8, 0xe1, 
  0xeb, 0x2e, 0xef, 0x7f, 0x10, 0xcf, 0x32, 0xef, 0x09, 0xee, 0x37, 0x05, 
  0x09, 0x1a, 0xee, 0xe0, 0xf3, 0xdf, 0x0e, 0x22, 0xe5, 0xf7, 0x10, 0xba, 
  0xe5, 0x2a, 0xce, 0x49, 0x23, 0x0c, 0x5f, 0xc1, 0x35, 0xca, 0x74, 0xe7, 
  0xc5, 0x17, 0x7f, 0x11, 0x49, 0x07, 0xf8, 0x48, 0x23, 0xaf, 0x1c, 0x20, 
  0x12, 0x36, 0x9c, 0x3a, 0xd3, 0xd0, 0x01, 0xcf, 0x05, 0xcb, 0x56, 0xf5, 
  0xbe, 0x51, 0x01, 0x0c, 0xca, 0x96, 0x40, 0x1d, 0x04, 0xad, 0x36, 0xc5, 
  0xf6, 0x81, 0x31, 0x2a, 0xd5, 0xfb, 0x3c, 0xaf, 0x01, 0x15, 0x12, 0xcd, 
  0xc1, 0x45, 0x4c, 0x11, 0xab, 0xf8, 0xe3, 0xd7, 0x1e, 0x35, 0xaa, 0xa5, 
  0xf5, 0x4a, 0xfa, 0xd7, 0xa1, 0x28, 0xe5, 0x32, 0xe2, 0x0b, 0x06, 0x19, 
  0xac, 0x81, 0x48, 0x4e, 0x54, 0xfe, 0x51, 0xfe, 0x07, 0x6e, 0x50, 0x26, 
  0xda, 0x4a, 0xef, 0x93, 0x72, 0x05, 0xe9, 0x72, 0xc0, 0xfb, 0x20, 0xf0, 
  0x3d, 0x23, 0x26, 0x53, 0x81, 0xe5, 0xe2, 0xf4, 0x2a, 0x4e, 0x97, 0x96, 
  0xa0, 0x45, 0x0c, 0xc6, 0xdb, 0x58, 0x17, 0x12, 0x0c, 0xf1, 0xb2, 0x07, 
  0x5f, 0xc3, 0x2a, 0x96, 0xa1, 0xef, 0x08, 0x7f, 0x52, 0xd3, 0x34, 0x09, 
  0xd4, 0x21, 0x04, 0x50, 0xc4, 0x8f, 0x28, 0xfb, 0x3f, 0xb6, 0xf4, 0xad, 
  0x15, 0xd3, 0x2f, 0x2f, 0xdc, 0xbb, 0xd4, 0xff, 0x5d, 0x12, 0xfc, 0x68, 
  0x46, 0x35, 0xb6, 0xc4, 0xc0, 0xa2, 0x37, 0x1e, 0x5b, 0xc1, 0xce, 0xd1, 
  0x1d, 0xd0, 0x73, 0x1e, 0xda, 0x05, 0x43, 0x81, 0xd8, 0x7c, 0xbf, 0x33, 
  0xed, 0xc2, 0x08, 0x03, 0x3a, 0xd7, 0x25, 0x13, 0xe8, 0x0f, 0xf5, 0xe5, 
  0xf4, 0x28, 0x7f, 0x13, 0xf8, 0x1b, 0x41, 0x26, 0x11, 0xd7, 0x17, 0xe6, 
  0x25, 0x21, 0x00, 0x0b, 0x1e, 0xcb, 0x35, 0xe6, 0x14, 0x6a, 0xd8, 0x92, 
  0x26, 0xe2, 0xc8, 0x8f, 0x81, 0xf2, 0xd9, 0xe0, 0x5e, 0xfe, 0xdd, 0x3b, 
  0xd8, 0x25, 0x47, 0xf9, 0xe5, 0x37, 0x9e, 0x28, 0xe3, 0x22, 0x38, 0x66, 
  0x43, 0xfe, 0xe3, 0xfa, 0x13, 0x1f, 0x81, 0xd1, 0x33, 0x22, 0xd5, 0x01, 
  0x23, 0x1a, 0x25, 0x21, 0xf6, 0x08, 0x32, 0xe0, 0x33, 0xff, 0x83, 0x1a, 
  0x2b, 0x9b, 0xf4, 0xe3, 0xf6, 0xad, 0xfa, 0x9e, 0xb5, 0x56, 0xa0, 0x57, 
  0x06, 0xc6, 0xe9, 0x11, 0x38, 0x0f, 0x2c, 0x24, 0x17, 0x04, 0xfd, 0xaa, 
  0x1d, 0xdd, 0x18, 0xf6, 0x15, 0xd0, 0x03, 0xe1, 0x0c, 0xe0, 0xc8, 0xfb, 
  0xa8, 0xe8, 0xf4, 0xc8, 0xce, 0x1f, 0x81, 0xea, 0xeb, 0x16, 0x3d, 0x07, 
  0x21, 0x2f, 0xe0, 0xf0, 0x21, 0x0f, 0x06, 0xe0, 0xdb, 0xfa, 0x07, 0x4a, 
  0xe4, 0xbe, 0x06, 0x08, 0x03, 0xf1, 0x28, 0xf9, 0xa5, 0x2b, 0x21, 0xdc, 
  0xf9, 0xf0, 0x81, 0xf6, 0x08, 0xf7, 0xc6, 0x05, 0x07, 0xc3, 0x02, 0x13, 
  0xff, 0x09, 0xd2, 0x55, 0x18, 0x1e, 0xfb, 0xef, 0x08, 0x03, 0xd7, 0xd9, 
  0x0b, 0x2e, 0x23, 0xe1, 0xbb, 0x10, 0x20, 0xf7, 0x23, 0x11, 0x81, 0xd2, 
  0xd4, 0x2b, 0xc9, 0xf5, 0xd6, 0xca, 0x18, 0x8f, 0xf7, 0x00, 0x1f, 0xfe, 
  0xee, 0x04, 0x0c, 0xd0, 0x11, 0x1f, 0x0b, 0x01, 0xf0, 0x01, 0x07, 0x2c, 
  0x10, 0x81, 0xf1, 0xb6, 0xdd, 0xd3, 0xf0, 0x48, 0x42, 0x5a, 0x37, 0xdd, 
  0xb8, 0x27, 0xd3, 0xe4, 0x4a, 0xe2, 0x09, 0x7f, 0xd6, 0x0a, 0xa5, 0xe4, 
  0xc3, 0x18, 0x1d, 0xdf, 0xc0, 0x0f, 0xf7, 0xce, 0xeb, 0x0a, 0x25, 0xec, 
  0x1d, 0x11, 0xac, 0xd9, 0x1f, 0x43, 0x40, 0x13, 0xf6, 0xf6, 0xdd, 0xf4, 
  0x14, 0x22, 0xf0, 0x7f, 0xec, 0x10, 0x23, 0xe0, 0x05, 0xc4, 0xf3, 0x08, 
  0xce, 0x0d, 0x14, 0x1f, 0x4a, 0xf0, 0x00, 0x06, 0xfc, 0xfe, 0x15, 0xee, 
  0xf0, 0xe4, 0xaa, 0xd4, 0xea, 0xfc, 0x35, 0xbc, 0xe3, 0x05, 0x10, 0xbd, 
  0xe0, 0xf2, 0x2d, 0xcf, 0x54, 0x17, 0x02, 0x1e, 0x0a, 0xc8, 0x0b, 0xfa, 
  0xfe, 0x81, 0x38, 0xde, 0xea, 0xcd, 0x26, 0x24, 0x45, 0x82, 0x35, 0xd8, 
  0x3e, 0xf2, 0xef, 0xab, 0xfb, 0x3a, 0xcf, 0x7f, 0xb4, 0xc5, 0x2f, 0xd5, 
  0xf4, 0xd3, 0x09, 0x39, 0x08, 0x14, 0xeb, 0xfb, 0x00, 0x00, 0x24, 0x2a, 
  0xcd, 0xda, 0x46, 0x97, 0xe4, 0x18, 0x43, 0x13, 0x1b, 0xf9, 0x06, 0xf0, 
  0xd8, 0xeb, 0x01, 0x3c, 0xc5, 0x3b, 0x26, 0x23, 0x35, 0x6b, 0x00, 0x43, 
  0xaa, 0x81, 0xca, 0xe8, 0xe6, 0xfb, 0xda, 0x13, 0xd2, 0xea, 0x60, 0x53, 
  0x3b, 0xf6, 0xfd, 0x22, 0x10, 0xff, 0x52, 0xf1, 0xd5, 0x7f, 0x11, 0xf9, 
  0xe4, 0x24, 0xf9, 0x2e, 0x4b, 0x0c, 0x27, 0x1f, 0xd9, 0xca, 0xf1, 0xd8, 
  0x30, 0xad, 0x0e, 0x0a, 0x0d, 0x2c, 0x4a, 0x14, 0x20, 0xb2, 0xea, 0x1d, 
  0x0e, 0xde, 0x7f, 0x0c, 0xf6, 0x29, 0xff, 0xfa, 0x5a, 0xf1, 0x0e, 0xd2, 
  0x1a, 0xe5, 0xee, 0x2b, 0x47, 0xc8, 0xe6, 0x42, 0x58, 0x29, 0xda, 0x29, 
  0x37, 0xd9, 0x2e, 0xbd, 0xf6, 0x35, 0xda, 0x3b, 0xb7, 0x30, 0x02, 0x0c, 
  0xbf, 0x43, 0x0a, 0x7f, 0x2b, 0x1d, 0x99, 0xaf, 0xe5, 0xb6, 0x8b, 0xed, 
  0x22, 0x17, 0xdf, 0xd4, 0x11, 0xad, 0x18, 0xb4, 0x87, 0xea, 0xf7, 0xdf, 
  0x02, 0xe2, 0x0a, 0xf5, 0xe6, 0x0f, 0x20, 0xeb, 0x2d, 0xce, 0xde, 0xfc, 
  0xf3, 0x10, 0x1b, 0xe6, 0xe6, 0xdb, 0x40, 0xf6, 0x1a, 0x31, 0x2c, 0xd9, 
  0x81, 0xdd, 0x31, 0x1b, 0x36, 0x0a, 0xb5, 0xfe, 0x4a, 0x76, 0x49, 0xd9, 
  0x55, 0xfd, 0x2d, 0xa9, 0x2b, 0xe8, 0xf4, 0x08, 0x81, 0x17, 0x92, 0x53, 
  0x1e, 0xc5, 0x28, 0xef, 0xe2, 0x49, 0x2c, 0xce, 0x59, 0x0f, 0xca, 0x18, 
  0x18, 0x59, 0x4e, 0xa7, 0xb3, 0x33, 0x03, 0xfb, 0xf6, 0xe9, 0x60, 0x39, 
  0xa5, 0xd0, 0x29, 0x01, 0x9d, 0x41, 0x19, 0x39, 0x7f, 0x10, 0x6a, 0xd4, 
  0x0d, 0x05, 0xf8, 0xf3, 0xc0, 0xf5, 0xe1, 0x6b, 0xd5, 0xae, 0x3d, 0x2e, 
  0xe0, 0x1b, 0xae, 0xd6, 0xc9, 0x12, 0xcf, 0x97, 0x7f, 0x48, 0x23, 0xbe, 
  0xee, 0x1c, 0xd0, 0x00, 0x24, 0xe3, 0x10, 0xee, 0x1e, 0xfa, 0xec, 0x3f, 
  0xfc, 0xb1, 0x20, 0x47, 0x86, 0x27, 0xa7, 0xfe, 0x41, 0xea, 0x3c, 0xea, 
  0x32, 0xcd, 0xf5, 0x4b, 0xdb, 0x06, 0xd5, 0x17, 0x2d, 0xee, 0xfe, 0xf1, 
  0xc7, 0xfb, 0xed, 0x26, 0x34, 0xee, 0xf9, 0x08, 0x7f, 0x0e, 0xe0, 0xe8, 
  0x24, 0x28, 0x78, 0xc8, 0x0f, 0x7f, 0x09, 0xf0, 0xc7, 0xef, 0xd8, 0x61, 
  0x99, 0x18, 0x57, 0xe2, 0xa8, 0x52, 0xe6, 0x5b, 0xe7, 0x65, 0x22, 0xf9, 
  0x9b, 0xda, 0x04, 0xad, 0xf0, 0x21, 0x0e, 0x2e, 0x0f, 0xf7, 0x5c, 0x9f, 
  0x7f, 0x21, 0x0e, 0xe2, 0xd8, 0x2b, 0xcf, 0xf9, 0xec, 0x57, 0x14, 0xf8, 
  0xdd, 0xda, 0xb2, 0x25, 0xf4, 0x26, 0x1b, 0xfd, 0xd9, 0xeb, 0x1f, 0xd7, 
  0xf7, 0x06, 0x06, 0xca, 0x14, 0xfb, 0xeb, 0x90, 0x15, 0x2e, 0x27, 0x10, 
  0xed, 0x05, 0x3c, 0x34, 0x09, 0x38, 0xd5, 0x08, 0xd4, 0x35, 0x81, 0x4f, 
  0x2d, 0x45, 0xaf, 0x1b, 0xcf, 0xc0, 0xe6, 0xf5, 0x26, 0x32, 0x10, 0x3c, 
  0x0c, 0x00, 0xd5, 0xc8, 0x56, 0xcd, 0xff, 0xff, 0x04, 0x00, 0x00, 0x00, 
  0x00, 0x01, 0x00, 0x00, 0x32, 0xf5, 0xff, 0xff, 0x41, 0x0d, 0x00, 0x00, 
  0x71, 0xef, 0xff, 0xff, 0x64, 0x35, 0x00, 0x00, 0xf9, 0x01, 0x00, 0x00, 
  0xdc, 0xfa, 0xff, 0xff, 0xf8, 0x02, 0x00, 0x00, 0xee, 0xec, 0xff, 0xff, 
  0x81, 0x01, 0x00, 0x00, 0xff, 0x13, 0x00, 0x00, 0x34, 0x03, 0x00, 0x00, 
  0x77, 0x0b, 0x00, 0x00, 0xec, 0x06, 0x00, 0x00, 0xf0, 0xfb, 0xff, 0xff, 
  0xb1, 0x02, 0x00, 0x00, 0xcf, 0x03, 0x00, 0x00, 0x88, 0xfa, 0xff, 0xff, 
  0x46, 0x0c, 0x00, 0x00, 0xfd, 0x10, 0x00, 0x00, 0xdc, 0xe2, 0xff, 0xff, 
  0xae, 0x0b, 0x00, 0x00, 0xf0, 0x00, 0x00, 0x00, 0x2a, 0x0f, 0x00, 0x00, 
  0x9e, 0x0a, 0x00, 0x00, 0x8c, 0x05, 0x00, 0x00, 0x92, 0xf7, 0xff, 0xff, 
  0x18, 0x14, 0x00, 0x00, 0x09, 0x0b, 0x00, 0x00, 0x9b, 0xff, 0xff, 0xff, 
  0xcc, 0x0c, 0x00, 0x00, 0x5b, 0xe5, 0xff, 0xff, 0xf5, 0x00, 0x00, 0x00, 
  0x06, 0xf8, 0xff, 0xff, 0x78, 0x0a, 0x00, 0x00, 0x39, 0x05, 0x00, 0x00, 
  0xcd, 0xff, 0xff, 0xff, 0x63, 0xf8, 0xff, 0xff, 0x54, 0x0d, 0x00, 0x00, 
  0x3f, 0xff, 0xff, 0xff, 0x36, 0x03, 0x00, 0x00, 0x25, 0xff, 0xff, 0xff, 
  0x4a, 0xfc, 0xff, 0xff, 0x35, 0x00, 0x00, 0x00, 0x52, 0x07, 0x00, 0x00, 
  0x9a, 0xfc, 0xff, 0xff, 0x31, 0xfd, 0xff, 0xff, 0x1e, 0xfe, 0xff, 0xff, 
  0x4c, 0xff, 0xff, 0xff, 0x04, 0x0b, 0x00, 0x00, 0xe3, 0x05, 0x00, 0x00, 
  0x34, 0x07, 0x00, 0x00, 0x04, 0x04, 0x00, 0x00, 0x8c, 0x0c, 0x00, 0x00, 
  0x55, 0x36, 0x00, 0x00, 0x5b, 0x04, 0x00, 0x00, 0x23, 0x07, 0x00, 0x00, 
  0x53, 0xf6, 0xff, 0xff, 0xcc, 0x1a, 0x00, 0x00, 0x8c, 0x0a, 0x00, 0x00, 
  0xce, 0x07, 0x00, 0x00, 0x8f, 0x01, 0x00, 0x00, 0x13, 0x0f, 0x00, 0x00, 
  0xab, 0x14, 0x00, 0x00, 0xaa, 0x15, 0x00, 0x00, 0x62, 0xce, 0xff, 0xff, 
  0x04, 0x00, 0x00, 0x00, 0xc0, 0x00, 0x00, 0x00, 0x27, 0x7f, 0x81, 0x81, 
  0x7f, 0x81, 0x7f, 0x7a, 0x7f, 0xa9, 0xb6, 0x18, 0x4b, 0xb8, 0x7f, 0x7f, 
  0xf9, 0x81, 0x36, 0x4a, 0x81, 0x05, 0x81, 0x7f, 0xc6, 0xf9, 0x04, 0x7f, 
  0x00, 0x7f, 0x10, 0xb3, 0x2d, 0x96, 0x20, 0xb7, 0x68, 0x83, 0x81, 0x81, 
  0x0d, 0xa9, 0xa2, 0xdc, 0x47, 0x81, 0x91, 0xf6, 0xf8, 0x7f, 0x7e, 0x39, 
  0x83, 0xc0, 0x7f, 0xd9, 0x81, 0x81, 0xd0, 0x81, 0x96, 0x7f, 0xaa, 0xb5, 
  0x42, 0x14, 0xb6, 0x70, 0x63, 0x5b, 0x0e, 0x78, 0x26, 0x81, 0xc5, 0x7f, 
  0xac, 0x7f, 0x59, 0xea, 0x63, 0xcf, 0xd0, 0x5c, 0x0f, 0x81, 0x9d, 0x28, 
  0x3a, 0x81, 0x7f, 0x24, 0x7f, 0x08, 0x7f, 0x81, 0x7f, 0x2d, 0x88, 0xe4, 
  0x81, 0x21, 0xe9, 0x6a, 0x7f, 0x7f, 0x81, 0x81, 0x7f, 0xfb, 0x81, 0xd9, 
  0x7f, 0x19, 0xd4, 0x78, 0x81, 0x34, 0x9d, 0x7f, 0xa8, 0x17, 0x1e, 0x12, 
  0xdf, 0x4a, 0x6a, 0x9e, 0x7f, 0x41, 0x13, 0xc0, 0x13, 0x55, 0xb1, 0x7f, 
  0xfd, 0x29, 0x7f, 0x66, 0x81, 0xfc, 0x17, 0xfc, 0x7f, 0x10, 0x81, 0x81, 
  0x66, 0xcb, 0xea, 0x3c, 0x81, 0xf1, 0x43, 0x7f, 0x5d, 0xe2, 0x79, 0x85, 
  0xeb, 0x81, 0x81, 0x7f, 0xfe, 0x81, 0xb7, 0x56, 0x07, 0xaa, 0xf0, 0xa7, 
  0xfd, 0x2a, 0xe1, 0x7f, 0x2d, 0x5b, 0x81, 0x7f, 0x9d, 0x81, 0x62, 0x68, 
  0x2b, 0x31, 0x81, 0xa0, 0x81, 0x29, 0x7f, 0x81, 0xac, 0xfc, 0xfe, 0xff, 
  0x32, 0xcf, 0xff, 0xff, 0x04, 0x00, 0x00, 0x00, 0x00, 0x01, 0x00, 0x00, 
  0x00, 0x00, 0x00, 0x00, 0x00, 0x00, 0x00, 0x00, 0x00, 0x00, 0x00, 0x00, 
  0x00, 0x00, 0x00, 0x00, 0x00, 0x00, 0x00, 0x00, 0x00, 0x00, 0x00, 0x00, 
  0x00, 0x00, 0x00, 0x00, 0x00, 0x00, 0x00, 0x00, 0x00, 0x00, 0x00, 0x00, 
  0x00, 0x00, 0x00, 0x00, 0x00, 0x00, 0x00, 0x00, 0x00, 0x00, 0x00, 0x00, 
  0x00, 0x00, 0x00, 0x00, 0x00, 0x00, 0x00, 0x00, 0x00, 0x00, 0x00, 0x00, 
  0x00, 0x00, 0x00, 0x00, 0x00, 0x00, 0x00, 0x00, 0x00, 0x00, 0x00, 0x00, 
  0x00, 0x00, 0x00, 0x00, 0x00, 0x00, 0x00, 0x00, 0x00, 0x00, 0x00, 0x00, 
  0x00, 0x00, 0x00, 0x00, 0x00, 0x00, 0x00, 0x00, 0x00, 0x00, 0x00, 0x00, 
  0x00, 0x00, 0x00, 0x00, 0x00, 0x00, 0x00, 0x00, 0x00, 0x00, 0x00, 0x00, 
  0x00, 0x00, 0x00, 0x00, 0x00, 0x00, 0x00, 0x00, 0x00, 0x00, 0x00, 0x00, 
  0x00, 0x00, 0x00, 0x00, 0x00, 0x00, 0x00, 0x00, 0x00, 0x00, 0x00, 0x00, 
  0x00, 0x00, 0x00, 0x00, 0x00, 0x00, 0x00, 0x00, 0x00, 0x00, 0x00, 0x00, 
  0x00, 0x00, 0x00, 0x00, 0x00, 0x00, 0x00, 0x00, 0x00, 0x00, 0x00, 0x00, 
  0x00, 0x00, 0x00, 0x00, 0x00, 0x00, 0x00, 0x00, 0x00, 0x00, 0x00, 0x00, 
  0x00, 0x00, 0x00, 0x00, 0x00, 0x00, 0x00, 0x00, 0x00, 0x00, 0x00, 0x00, 
  0x00, 0x00, 0x00, 0x00, 0x00, 0x00, 0x00, 0x00, 0x00, 0x00, 0x00, 0x00, 
  0x00, 0x00, 0x00, 0x00, 0x00, 0x00, 0x00, 0x00, 0x00, 0x00, 0x00, 0x00, 
  0x00, 0x00, 0x00, 0x00, 0x00, 0x00, 0x00, 0x00, 0x00, 0x00, 0x00, 0x00, 
  0x00, 0x00, 0x00, 0x00, 0x00, 0x00, 0x00, 0x00, 0x00, 0x00, 0x00, 0x00, 
  0x00, 0x00, 0x00, 0x00, 0x00, 0x00, 0x00, 0x00, 0x00, 0x00, 0x00, 0x00, 
  0x00, 0x00, 0x00, 0x00, 0x00, 0x00, 0x00, 0x00, 0x00, 0x00, 0x00, 0x00, 
  0x00, 0x00, 0x00, 0x00, 0x3e, 0xd0, 0xff, 0xff, 0x04, 0x00, 0x00, 0x00, 
  0x00, 0x10, 0x00, 0x00, 0xfb, 0x0b, 0xc9, 0x9b, 0xf6, 0x31, 0x40, 0x50, 
  0x22, 0x54, 0xf6, 0xff, 0xed, 0xeb, 0xd4, 0xfe, 0x39, 0xe7, 0x00, 0x04, 
  0x14, 0x43, 0xdc, 0xe6, 0x76, 0xd1, 0x05, 0xf7, 0x33, 0xd8, 0x7f, 0xd0, 
  0x53, 0xee, 0x29, 0xf5, 0xb4, 0xd7, 0xef, 0x6f, 0xed, 0x40, 0x2c, 0x07, 
  0xfc, 0xf1, 0x14, 0x2d, 0x14, 0x42, 0x03, 0x08, 0x36, 0x33, 0xda, 0xc0, 
  0xbd, 0x03, 0xf8, 0xcb, 0x35, 0x21, 0xfc, 0xaf, 0x05, 0x32, 0x9c, 0xa3, 
  0x30, 0x49, 0xfe, 0x46, 0xe6, 0x52, 0x10, 0x24, 0xaf, 0x1e, 0xc5, 0xf4, 
  0x7f, 0x7a, 0x04, 0x0a, 0xe3, 0x36, 0xfc, 0x1e, 0x43, 0xce, 0xbe, 0xee, 
  0x1d, 0x14, 0x62, 0xb6, 0xf2, 0x46, 0xe5, 0xeb, 0x03, 0x03, 0x0e, 0x57, 
  0x03, 0x59, 0xb8, 0x45, 0xce, 0xe0, 0xf8, 0xff, 0xd6, 0x0c, 0xe4, 0xed, 
  0xf9, 0x31, 0xcf, 0xde, 0x96, 0xec, 0xd6, 0xe7, 0x5d, 0xf4, 0xc3, 0xca, 
  0xe0, 0x31, 0xe0, 0x09, 0xe7, 0x19, 0xdf, 0x16, 0x16, 0x1b, 0xc0, 0xd7, 
  0x37, 0xd4, 0xdf, 0xf6, 0xf5, 0x02, 0xf2, 0xfb, 0xef, 0xd3, 0xee, 0xaa, 
  0x7f, 0xd6, 0xb6, 0x23, 0x24, 0x42, 0xca, 0x1e, 0x1c, 0x0a, 0x92, 0x05, 
  0xfc, 0x3a, 0xa4, 0xb9, 0x13, 0x45, 0x0a, 0xff, 0x01, 0x1e, 0xa2, 0xe3, 
  0xdd, 0x0e, 0xb3, 0x14, 0xde, 0x15, 0xbc, 0x28, 0x01, 0xab, 0xff, 0x22, 
  0xd4, 0xf3, 0xec, 0xf0, 0x6c, 0x21, 0x81, 0xa3, 0xd8, 0x54, 0x29, 0x67, 
  0xcf, 0x2b, 0xed, 0xd2, 0x12, 0x15, 0xe4, 0xcf, 0x1a, 0xed, 0xd9, 0x6e, 
  0x15, 0x05, 0xcb, 0x15, 0x41, 0x88, 0xc9, 0xf7, 0x2d, 0xec, 0x48, 0xd1, 
  0x12, 0x04, 0x21, 0xc3, 0xfc, 0x16, 0xe1, 0x1c, 0xee, 0x6c, 0xe5, 0x52, 
  0x2d, 0xf0, 0xbd, 0xfa, 0xdf, 0x16, 0x9b, 0x15, 0x25, 0x5c, 0xde, 0xff, 
  0x99, 0xb8, 0xfb, 0xf5, 0x73, 0x3f, 0x39, 0xf2, 0x12, 0xd5, 0xd4, 0x20, 
  0x46, 0xe7, 0x0b, 0xdf, 0xf8, 0xd6, 0x0b, 0x20, 0xe5, 0x15, 0x54, 0x38, 
  0xd7, 0x22, 0xf7, 0xfa, 0xd2, 0xdb, 0xe6, 0xd4, 0x10, 0x1b, 0x4b, 0x09, 
  0xec, 0x23, 0xf2, 0xd9, 0xe2, 0x16, 0xf4, 0x06, 0xf7, 0xd7, 0xf7, 0xfc, 
  0x2f, 0x34, 0x1f, 0xca, 0x0e, 0x0f, 0xd9, 0xfc, 0x45, 0x5f, 0xfc, 0xed, 
  0xf4, 0x05, 0x05, 0x21, 0xdf, 0xe7, 0x0d, 0x32, 0x14, 0x7f, 0xeb, 0x13, 
  0xf5, 0x5a, 0x35, 0xf5, 0x1b, 0xc4, 0xe4, 0xdc, 0x11, 0xde, 0x09, 0x03, 
  0xc5, 0xb2, 0xe8, 0x02, 0xad, 0xf9, 0xdd, 0xeb, 0xa7, 0x3f, 0xd9, 0xf5, 
  0x27, 0x7f, 0xe9, 0x08, 0xf7, 0xfc, 0xde, 0x76, 0xf9, 0x0d, 0x09, 0xd9, 
  0x7b, 0x17, 0x42, 0xfa, 0x01, 0x16, 0x43, 0xe9, 0xe0, 0xda, 0x33, 0x0b, 
  0xf1, 0x2b, 0x05, 0xaf, 0xb0, 0x5e, 0xb1, 0xf2, 0x70, 0xd8, 0x11, 0x25, 
  0x0f, 0x0d, 0xc3, 0x08, 0xe4, 0xed, 0x12, 0x05, 0x98, 0x0f, 0xfd, 0x20, 
  0xcc, 0xe3, 0x0b, 0xe4, 0x1b, 0x22, 0x2b, 0xb3, 0x81, 0x05, 0x1c, 0xe6, 
  0x18, 0xf4, 0xde, 0x25, 0xfc, 0x17, 0x2b, 0xf7, 0x0c, 0x53, 0xd6, 0xf4, 
  0x0b, 0x17, 0x01, 0xf8, 0xd4, 0x26, 0x8e, 0xdc, 0xed, 0x22, 0x21, 0xe7, 
  0x2f, 0xfa, 0xd3, 0x04, 0x0b, 0x06, 0x48, 0xa8, 0x1b, 0x0e, 0xc2, 0x50, 
  0xfb, 0x3b, 0x0c, 0x06, 0xc8, 0x53, 0x2f, 0x44, 0xbb, 0x4d, 0x38, 0xeb, 
  0xd1, 0x52, 0x3e, 0xf3, 0xd4, 0x4a, 0xb1, 0xe2, 0x17, 0xda, 0x1e, 0x01, 
  0x7d, 0xe7, 0x09, 0xf8, 0x31, 0xbb, 0x50, 0xf8, 0x66, 0x96, 0xfc, 0x2b, 
  0x7c, 0x52, 0x73, 0xe3, 0x2e, 0x06, 0x02, 0xf5, 0xd8, 0xf5, 0x4f, 0x1d, 
  0x23, 0x7f, 0x56, 0xba, 0x4f, 0xcc, 0x5b, 0x1f, 0x1e, 0xd4, 0xe5, 0xb3, 
  0x17, 0x54, 0xa2, 0x09, 0xbf, 0x2e, 0x4a, 0xa7, 0x7e, 0x1f, 0xa6, 0x32, 
  0xe3, 0x17, 0xcb, 0x81, 0x10, 0xf4, 0xb9, 0x06, 0x9e, 0xf9, 0xee, 0x12, 
  0xf2, 0xfd, 0xd8, 0xdc, 0xce, 0xe5, 0xee, 0xf4, 0x15, 0xf1, 0xa9, 0xff, 
  0x70, 0x52, 0xce, 0xe4, 0xfd, 0x12, 0xce, 0x43, 0x0a, 0x1c, 0xf4, 0xfe, 
  0x3e, 0x1a, 0xfb, 0xe5, 0xa8, 0x17, 0x03, 0x12, 0xfd, 0x1e, 0x03, 0xfb, 
  0xe5, 0x3a, 0xe4, 0x06, 0xf9, 0xff, 0xc0, 0x52, 0x2e, 0xba, 0xef, 0x2e, 
  0xcf, 0x11, 0xd6, 0x20, 0xe0, 0x43, 0x34, 0xc8, 0xeb, 0xe0, 0xff, 0xbc, 
  0xda, 0x14, 0xf1, 0x09, 0x10, 0xc1, 0xc1, 0xec, 0xdf, 0x2c, 0xe9, 0xcd, 
  0x56, 0x05, 0xee, 0xdc, 0x3b, 0x00, 0xc3, 0x19, 0x9d, 0x02, 0xd1, 0x22, 
  0x81, 0x45, 0xc3, 0x29, 0x41, 0x15, 0xec, 0x25, 0xbd, 0x15, 0xfd, 0x3f, 
  0xaf, 0x2d, 0x06, 0x19, 0xde, 0x18, 0xb5, 0xdd, 0xe4, 0x33, 0xf4, 0xda, 
  0x32, 0xf8, 0xcb, 0x32, 0xcb, 0x64, 0x24, 0xed, 0x10, 0x49, 0xe8, 0x81, 
  0xf4, 0x0f, 0x23, 0xc5, 0xd0, 0x53, 0x0b, 0x09, 0xe8, 0xed, 0xda, 0xcb, 
  0x61, 0x08, 0xb4, 0xee, 0x02, 0x33, 0xf1, 0x34, 0x5a, 0xad, 0xd3, 0xfa, 
  0x24, 0xec, 0x51, 0xa2, 0x01, 0x44, 0x0b, 0x09, 0xec, 0x0e, 0x0e, 0xd2, 
  0x37, 0x59, 0xef, 0x0a, 0x00, 0xf7, 0x56, 0xf4, 0xf0, 0x30, 0x21, 0xe5, 
  0x08, 0x03, 0xb9, 0xc7, 0xad, 0xc6, 0xea, 0xc8, 0x67, 0xf0, 0xe3, 0xea, 
  0xf7, 0x77, 0x16, 0xfa, 0xe3, 0xca, 0x46, 0xee, 0xd4, 0x34, 0xda, 0xcc, 
  0x46, 0xa2, 0xf7, 0xd3, 0xf0, 0xfb, 0xd3, 0xdf, 0x4b, 0x22, 0x30, 0xdf, 
  0x02, 0x02, 0xea, 0xe4, 0xca, 0x24, 0xe8, 0x13, 0x30, 0xfa, 0x03, 0x20, 
  0x03, 0x0a, 0x0b, 0x0f, 0x1d, 0x3a, 0xf8, 0x27, 0x15, 0x28, 0x1c, 0xfe, 
  0xfb, 0x15, 0x13, 0x0e, 0x18, 0xa1, 0x52, 0xde, 0x0a, 0x7f, 0x06, 0x04, 
  0xe6, 0xcd, 0x40, 0xe2, 0x10, 0xee, 0x01, 0xfa, 0x33, 0xcc, 0x28, 0x19, 
  0xfa, 0x3b, 0x9e, 0x08, 0x04, 0x24, 0x04, 0xf2, 0x4e, 0x07, 0x22, 0xee, 
  0x38, 0xea, 0x16, 0xfb, 0x42, 0xdf, 0xbe, 0xe8, 0x7f, 0x01, 0x31, 0xe4, 
  0x3c, 0x1f, 0xe7, 0x04, 0x17, 0x12, 0xe7, 0x17, 0xfb, 0xb6, 0xf6, 0x03, 
  0x40, 0xe6, 0xe0, 0x35, 0xee, 0xff, 0x3d, 0x13, 0x0e, 0x4b, 0xda, 0xfb, 
  0xe7, 0x0f, 0x16, 0xe1, 0x14, 0xee, 0xdb, 0x50, 0xbf, 0xe3, 0x37, 0x83, 
  0x0c, 0x2e, 0xc6, 0x20, 0xeb, 0x12, 0x24, 0xef, 0xee, 0xe0, 0xd2, 0x12, 
  0xb0, 0xaf, 0x6c, 0xfc, 0xc8, 0x14, 0xfe, 0x27, 0xf3, 0xf5, 0xe2, 0x0c, 
  0xcb, 0x2b, 0xcb, 0xe0, 0xcf, 0xdd, 0xd9, 0x1e, 0xfa, 0xdf, 0xed, 0xe9, 
  0xce, 0xf9, 0xed, 0x2b, 0xb5, 0x01, 0x04, 0xe2, 0x82, 0x15, 0x13, 0xf7, 
  0x17, 0xe8, 0x2c, 0xc1, 0x46, 0xf1, 0x0b, 0x17, 0xd7, 0xe2, 0x81, 0x1d, 
  0xe8, 0x28, 0x05, 0xe0, 0x1d, 0x16, 0x16, 0xd5, 0x2a, 0xfa, 0xce, 0x1f, 
  0xfb, 0x10, 0x24, 0x09, 0x00, 0xda, 0xe0, 0x21, 0xe2, 0x02, 0xa4, 0x81, 
  0xe3, 0x1a, 0xce, 0x51, 0x1f, 0x9e, 0x12, 0x24, 0x13, 0x29, 0x2c, 0xf9, 
  0xed, 0xda, 0x25, 0x21, 0x4f, 0x16, 0x18, 0xc1, 0x28, 0xfa, 0x18, 0x45, 
  0xb7, 0xd5, 0xcf, 0x06, 0xe9, 0x13, 0xef, 0xd7, 0x2b, 0x16, 0xf3, 0x14, 
  0x0d, 0xc9, 0xff, 0x0c, 0xf2, 0x12, 0xd2, 0xd0, 0xca, 0xe1, 0xe1, 0x10, 
  0x1a, 0x57, 0xf4, 0xc7, 0x44, 0x07, 0xf3, 0x02, 0x1a, 0x01, 0xdc, 0x0c, 
  0x07, 0xc8, 0x4b, 0x24, 0x76, 0xcc, 0x13, 0xad, 0xd1, 0x39, 0xd1, 0xe3, 
  0x2a, 0x4f, 0xff, 0xbf, 0x2a, 0xf1, 0xf1, 0xbc, 0xb9, 0xf6, 0x20, 0xd4, 
  0xdf, 0x39, 0x13, 0x01, 0xe8, 0x02, 0x12, 0x13, 0x21, 0xe8, 0x26, 0x7f, 
  0xf2, 0x1d, 0x15, 0x7c, 0xd5, 0x2c, 0xe0, 0x21, 0x61, 0xe8, 0xab, 0xaa, 
  0x06, 0x15, 0x33, 0x6a, 0x13, 0x39, 0x50, 0x2f, 0xef, 0x1f, 0xd1, 0xd0, 
  0x57, 0x0f, 0x26, 0xec, 0x02, 0x3f, 0xe0, 0x57, 0x0f, 0x31, 0xd7, 0x34, 
  0x32, 0xde, 0x7f, 0x92, 0x2c, 0x01, 0x71, 0xed, 0xcf, 0x4d, 0xeb, 0x0f, 
  0xbb, 0xfe, 0x4a, 0x0b, 0xfc, 0xfb, 0x08, 0x2e, 0x0d, 0x02, 0xf9, 0xc7, 
  0xe5, 0x12, 0x09, 0x15, 0xdc, 0xed, 0xf7, 0xce, 0x06, 0x35, 0xe2, 0x07, 
  0x06, 0x26, 0xc6, 0x10, 0xf8, 0xfc, 0x29, 0xf1, 0x46, 0xf1, 0x0f, 0xd2, 
  0xb7, 0xec, 0xe6, 0x49, 0xd5, 0xfe, 0x34, 0x16, 0xe2, 0x0a, 0x61, 0xe1, 
  0x32, 0x0d, 0xf1, 0xe7, 0x8e, 0x10, 0xe6, 0xea, 0x2b, 0xd5, 0xd4, 0xe1, 
  0xff, 0xed, 0x1e, 0xfa, 0xe9, 0xf3, 0x21, 0x11, 0x2b, 0x36, 0xe9, 0x11, 
  0x2c, 0x58, 0x20, 0x6d, 0x0c, 0x30, 0x33, 0xe5, 0x20, 0x2e, 0x7f, 0x42, 
  0xdc, 0x1a, 0x0c, 0xb9, 0x05, 0x33, 0x3a, 0x22, 0xff, 0x17, 0x6c, 0xc9, 
  0x07, 0x5a, 0xcc, 0x15, 0x18, 0xf4, 0xbb, 0xc9, 0x11, 0xe9, 0xb5, 0x1f, 
  0x7c, 0xe1, 0x49, 0x08, 0x09, 0xc7, 0x02, 0x05, 0xb0, 0x22, 0x0b, 0xd4, 
  0x21, 0x81, 0x14, 0x42, 0x15, 0xfb, 0xe9, 0x13, 0xe8, 0x0c, 0xdf, 0xc8, 
